{
  "version": "1.0",
  "truncation": null,
  "padding": null,
  "added_tokens": [
    {
      "id": 0,
      "content": "[UNK]",
      "single_word": false,
      "lstrip": false,
      "rstrip": false,
      "normalized": false,
      "special": true
    },
    {
      "id": 1,
      "content": "[CLS]",
      "single_word": false,
      "lstrip": false,
      "rstrip": false,
      "normalized": false,
      "special": true
    },
    {
      "id": 2,
      "content": "[SEP]",
      "single_word": false,
      "lstrip": false,
      "rstrip": false,
      "normalized": false,
      "special": true
    },
    {
      "id": 3,
      "content": "[PAD]",
      "single_word": false,
      "lstrip": false,
      "rstrip": false,
      "normalized": false,
      "special": true
    },
    {
      "id": 4,
      "content": "[MASK]",
      "single_word": false,
      "lstrip": false,
      "rstrip": false,
      "normalized": false,
      "special": true
    }
  ],
  "normalizer": null,
  "pre_tokenizer": {
    "type": "Whitespace"
  },
  "post_processor": null,
  "decoder": null,
  "model": {
    "type": "BPE",
    "dropout": null,
    "unk_token": "[UNK]",
    "continuing_subword_prefix": null,
    "end_of_word_suffix": null,
    "fuse_unk": false,
    "byte_fallback": false,
    "vocab": {
      "[UNK]": 0,
      "[CLS]": 1,
      "[SEP]": 2,
      "[PAD]": 3,
      "[MASK]": 4,
      "!": 5,
      "\"": 6,
      "#": 7,
      "%": 8,
      "(": 9,
      ")": 10,
      "*": 11,
      "+": 12,
      ",": 13,
      "-": 14,
      ".": 15,
      "/": 16,
      "0": 17,
      "1": 18,
      "2": 19,
      "3": 20,
      "4": 21,
      "5": 22,
      "6": 23,
      "7": 24,
      "8": 25,
      "9": 26,
      ":": 27,
      "=": 28,
      "?": 29,
      "@": 30,
      "A": 31,
      "B": 32,
      "C": 33,
      "D": 34,
      "E": 35,
      "F": 36,
      "G": 37,
      "H": 38,
      "I": 39,
      "K": 40,
      "L": 41,
      "M": 42,
      "N": 43,
      "O": 44,
      "P": 45,
      "Q": 46,
      "R": 47,
      "S": 48,
      "T": 49,
      "U": 50,
      "V": 51,
      "W": 52,
      "X": 53,
      "Y": 54,
      "Z": 55,
      "[": 56,
      "]": 57,
      "_": 58,
      "a": 59,
      "b": 60,
      "c": 61,
      "d": 62,
      "e": 63,
      "f": 64,
      "g": 65,
      "h": 66,
      "i": 67,
      "j": 68,
      "k": 69,
      "l": 70,
      "m": 71,
      "n": 72,
      "o": 73,
      "p": 74,
      "q": 75,
      "r": 76,
      "s": 77,
      "t": 78,
      "u": 79,
      "v": 80,
      "w": 81,
      "x": 82,
      "y": 83,
      "z": 84,
      "­": 85,
      "´": 86,
      "ú": 87,
      "ü": 88,
      "ń": 89,
      "Ə": 90,
      "ə": 91,
      "́": 92,
      "І": 93,
      "А": 94,
      "Б": 95,
      "В": 96,
      "Г": 97,
      "Д": 98,
      "Е": 99,
      "Ж": 100,
      "З": 101,
      "И": 102,
      "Й": 103,
      "К": 104,
      "Л": 105,
      "М": 106,
      "Н": 107,
      "О": 108,
      "П": 109,
      "Р": 110,
      "С": 111,
      "Т": 112,
      "У": 113,
      "Ф": 114,
      "Х": 115,
      "Ц": 116,
      "Ч": 117,
      "Ш": 118,
      "Щ": 119,
      "Ы": 120,
      "Ь": 121,
      "Э": 122,
      "Ю": 123,
      "Я": 124,
      "а": 125,
      "б": 126,
      "в": 127,
      "г": 128,
      "д": 129,
      "е": 130,
      "ж": 131,
      "з": 132,
      "и": 133,
      "й": 134,
      "к": 135,
      "л": 136,
      "м": 137,
      "н": 138,
      "о": 139,
      "п": 140,
      "р": 141,
      "с": 142,
      "т": 143,
      "у": 144,
      "ф": 145,
      "х": 146,
      "ц": 147,
      "ч": 148,
      "ш": 149,
      "щ": 150,
      "ъ": 151,
      "ы": 152,
      "ь": 153,
      "э": 154,
      "ю": 155,
      "я": 156,
      "ё": 157,
      "ѕ": 158,
      "і": 159,
      "ў": 160,
      "Ғ": 161,
      "ғ": 162,
      "Қ": 163,
      "қ": 164,
      "Ң": 165,
      "ң": 166,
      "Ү": 167,
      "ү": 168,
      "Ұ": 169,
      "ұ": 170,
      "Һ": 171,
      "һ": 172,
      "Ә": 173,
      "ә": 174,
      "Ө": 175,
      "ө": 176,
      "​": 177,
      "–": 178,
      "—": 179,
      "’": 180,
      "“": 181,
      "”": 182,
      "•": 183,
      "…": 184,
      "№": 185,
      "−": 186,
      "─": 187,
      "": 188,
      "ар": 189,
      "ен": 190,
      "ын": 191,
      "ер": 192,
      "ан": 193,
      "ал": 194,
      "да": 195,
      "ін": 196,
      "ды": 197,
      "ст": 198,
      "де": 199,
      "ат": 200,
      "ай": 201,
      "ді": 202,
      "ық": 203,
      "ет": 204,
      "ау": 205,
      "ыл": 206,
      "ас": 207,
      "ел": 208,
      "ың": 209,
      "ақ": 210,
      "ол": 211,
      "ті": 212,
      "ия": 213,
      "ға": 214,
      "іл": 215,
      "ек": 216,
      "із": 217,
      "ес": 218,
      "ір": 219,
      "мен": 220,
      "ыс": 221,
      "аз": 222,
      "ту": 223,
      "тар": 224,
      "он": 225,
      "ре": 226,
      "ғы": 227,
      "аң": 228,
      "өз": 229,
      "ған": 230,
      "ім": 231,
      "ор": 232,
      "ыр": 233,
      "ам": 234,
      "айл": 235,
      "ке": 236,
      "алық": 237,
      "ыз": 238,
      "ұр": 239,
      "ері": 240,
      "ында": 241,
      "не": 242,
      "ым": 243,
      "бол": 244,
      "та": 245,
      "қа": 246,
      "ік": 247,
      "ге": 248,
      "сайл": 249,
      "ып": 250,
      "ем": 251,
      "ының": 252,
      "гі": 253,
      "дың": 254,
      "ба": 255,
      "ция": 256,
      "ум": 257,
      "ады": 258,
      "сайлау": 259,
      "ген": 260,
      "реф": 261,
      "бір": 262,
      "лық": 263,
      "енд": 264,
      "ден": 265,
      "стан": 266,
      "сти": 267,
      "інде": 268,
      "ендум": 269,
      "са": 270,
      "дар": 271,
      "ерендум": 272,
      "ститу": 273,
      "үш": 274,
      "ына": 275,
      "пу": 276,
      "ұл": 277,
      "бас": 278,
      "бер": 279,
      "өт": 280,
      "бар": 281,
      "бл": 282,
      "ің": 283,
      "онститу": 284,
      "онституция": 285,
      "қар": 286,
      "пар": 287,
      "дық": 288,
      "яс": 289,
      "дай": 290,
      "жә": 291,
      "дан": 292,
      "ыст": 293,
      "ап": 294,
      "Қаз": 295,
      "кел": 296,
      "ты": 297,
      "және": 298,
      "гіз": 299,
      "әс": 300,
      "іс": 301,
      "дау": 302,
      "референдум": 303,
      "тү": 304,
      "ақстан": 305,
      "еді": 306,
      "етті": 307,
      "өзг": 308,
      "ей": 309,
      "жү": 310,
      "дің": 311,
      "ша": 312,
      "от": 313,
      "лар": 314,
      "ой": 315,
      "қат": 316,
      "кө": 317,
      "ик": 318,
      "те": 319,
      "лек": 320,
      "тың": 321,
      "шыл": 322,
      "Қазақстан": 323,
      "аттар": 324,
      "зи": 325,
      "саяс": 326,
      "Конституция": 327,
      "ның": 328,
      "дам": 329,
      "етін": 330,
      "қан": 331,
      "әр": 332,
      "қал": 333,
      "халық": 334,
      "рези": 335,
      "резиден": 336,
      "сы": 337,
      "іп": 338,
      "емлек": 339,
      "алы": 340,
      "ин": 341,
      "кер": 342,
      "заң": 343,
      "ағ": 344,
      "қо": 345,
      "саяси": 346,
      "іне": 347,
      "кез": 348,
      "ом": 349,
      "дер": 350,
      "өзгері": 351,
      "құ": 352,
      "стер": 353,
      "тия": 354,
      "резидент": 355,
      "інің": 356,
      "атын": 357,
      "сын": 358,
      "алар": 359,
      "кім": 360,
      "шы": 361,
      "лер": 362,
      "кіл": 363,
      "тан": 364,
      "партия": 365,
      "ше": 366,
      "еспу": 367,
      "лі": 368,
      "блик": 369,
      "айт": 370,
      "еспублик": 371,
      "тық": 372,
      "тал": 373,
      "үшін": 374,
      "жо": 375,
      "лік": 376,
      "деп": 377,
      "мәс": 378,
      "ов": 379,
      "кен": 380,
      "тер": 381,
      "құр": 382,
      "ынша": 383,
      "жыл": 384,
      "азам": 385,
      "ти": 386,
      "қол": 387,
      "енгіз": 388,
      "ла": 389,
      "шылар": 390,
      "өзгерістер": 391,
      "іміз": 392,
      "құқ": 393,
      "мемлек": 394,
      "пут": 395,
      "би": 396,
      "асы": 397,
      "ев": 398,
      "отыр": 399,
      "ғам": 400,
      "аңа": 401,
      "орм": 402,
      "тур": 403,
      "был": 404,
      "дей": 405,
      "депут": 406,
      "еттік": 407,
      "кіз": 408,
      "дауыс": 409,
      "баст": 410,
      "ыру": 411,
      "ұм": 412,
      "ең": 413,
      "мақ": 414,
      "ғар": 415,
      "ысы": 416,
      "дағы": 417,
      "сия": 418,
      "дік": 419,
      "аст": 420,
      "ламен": 421,
      "су": 422,
      "қоғам": 423,
      "үм": 424,
      "гін": 425,
      "кін": 426,
      "ком": 427,
      "Бұл": 428,
      "Президент": 429,
      "әж": 430,
      "сен": 431,
      "үн": 432,
      "бой": 433,
      "әкім": 434,
      "аңыз": 435,
      "жет": 436,
      "тұр": 437,
      "жат": 438,
      "туралы": 439,
      "өкіл": 440,
      "ис": 441,
      "ру": 442,
      "тің": 443,
      "жұм": 444,
      "деген": 445,
      "өр": 446,
      "беру": 447,
      "қатыс": 448,
      "ұсын": 449,
      "ламент": 450,
      "маңыз": 451,
      "қыл": 452,
      "есі": 453,
      "бойынша": 454,
      "ле": 455,
      "ди": 456,
      "ғын": 457,
      "өткіз": 458,
      "Ал": 459,
      "Пар": 460,
      "есе": 461,
      "ысты": 462,
      "уы": 463,
      "жас": 464,
      "жүй": 465,
      "иссия": 466,
      "их": 467,
      "обл": 468,
      "бел": 469,
      "қабыл": 470,
      "ші": 471,
      "түс": 472,
      "Сон": 473,
      "мәсел": 474,
      "ындағы": 475,
      "ок": 476,
      "20": 477,
      "қыз": 478,
      "сал": 479,
      "біл": 480,
      "шіл": 481,
      "ету": 482,
      "комиссия": 483,
      "пен": 484,
      "айды": 485,
      "адам": 486,
      "мүш": 487,
      "сан": 488,
      "гіл": 489,
      "бұл": 490,
      "лы": 491,
      "тол": 492,
      "көр": 493,
      "жаңа": 494,
      "азаматтар": 495,
      "қаз": 496,
      "керек": 497,
      "реформ": 498,
      "енгізіл": 499,
      "мүм": 500,
      "билік": 501,
      "тор": 502,
      "Конституциялық": 503,
      "мүмкін": 504,
      "өн": 505,
      "құқық": 506,
      "әжіл": 507,
      "ма": 508,
      "еспубликалық": 509,
      "рет": 510,
      "уға": 511,
      "Парламент": 512,
      "болады": 513,
      "дері": 514,
      "жер": 515,
      "лан": 516,
      "дем": 517,
      "өрағ": 518,
      "рат": 519,
      "ымыз": 520,
      "сіз": 521,
      "елер": 522,
      "ыт": 523,
      "жүр": 524,
      "күн": 525,
      "арт": 526,
      "маңызды": 527,
      "ымен": 528,
      "ыстар": 529,
      "кезде": 530,
      "час": 531,
      "депутаттар": 532,
      "алады": 533,
      "қау": 534,
      "\",": 535,
      "Мәжіл": 536,
      "алған": 537,
      "ікті": 538,
      "ынан": 539,
      "йым": 540,
      "учас": 541,
      "сті": 542,
      "шеш": 543,
      "жан": 544,
      "ылған": 545,
      "бе": 546,
      "жол": 547,
      "сының": 548,
      "ықт": 549,
      "қызм": 550,
      "деді": 551,
      "жөн": 552,
      "екен": 553,
      "негіз": 554,
      "өзгер": 555,
      "оқ": 556,
      "жал": 557,
      "халықтың": 558,
      "емес": 559,
      "бек": 560,
      "еф": 561,
      "қару": 562,
      "республикалық": 563,
      "мемлекет": 564,
      "Реф": 565,
      "пр": 566,
      "ауыл": 567,
      "ни": 568,
      "конституция": 569,
      "дат": 570,
      "Республик": 571,
      "діл": 572,
      "өл": 573,
      "кең": 574,
      "аты": 575,
      "түсін": 576,
      "се": 577,
      "төрағ": 578,
      "жұмыс": 579,
      "әл": 580,
      "осы": 581,
      "Референдум": 582,
      "оның": 583,
      "шысы": 584,
      "тік": 585,
      "қор": 586,
      "президент": 587,
      "еліміз": 588,
      "болып": 589,
      "талық": 590,
      "дегі": 591,
      "ократ": 592,
      "сөз": 593,
      "баев": 594,
      "ократия": 595,
      "үл": 596,
      "біз": 597,
      "оң": 598,
      "іш": 599,
      "мау": 600,
      "дір": 601,
      "шығар": 602,
      "жағ": 603,
      "бай": 604,
      "қай": 605,
      "әу": 606,
      "кей": 607,
      "қылы": 608,
      "ұйым": 609,
      "көп": 610,
      "арқылы": 611,
      "індегі": 612,
      "Мәжіліс": 613,
      "асының": 614,
      "оп": 615,
      "лих": 616,
      "ақыл": 617,
      "конституциялық": 618,
      "жоқ": 619,
      "демократия": 620,
      "Мемлек": 621,
      "байл": 622,
      "алды": 623,
      "түр": 624,
      "жау": 625,
      "жар": 626,
      "гер": 627,
      "ығы": 628,
      "қоғамдық": 629,
      "тен": 630,
      "бап": 631,
      "ур": 632,
      "уге": 633,
      "шар": 634,
      "Бір": 635,
      "жақ": 636,
      "таб": 637,
      "есін": 638,
      "ама": 639,
      "ікір": 640,
      "барлық": 641,
      "дейін": 642,
      "пы": 643,
      "асын": 644,
      "түз": 645,
      "елері": 646,
      "тіл": 647,
      "жағдай": 648,
      "күш": 649,
      "анди": 650,
      "еге": 651,
      "әрі": 652,
      "мемлекеттік": 653,
      "жауап": 654,
      "ғай": 655,
      "Конституцияға": 656,
      "аудан": 657,
      "олар": 658,
      "өтті": 659,
      "пікір": 660,
      "сым": 661,
      "таң": 662,
      "ак": 663,
      "референдумға": 664,
      "Нұр": 665,
      "мәслих": 666,
      "іст": 667,
      "астар": 668,
      "аш": 669,
      "пай": 670,
      "аған": 671,
      "ғары": 672,
      "қызмет": 673,
      "мір": 674,
      "тары": 675,
      "қатысты": 676,
      "ны": 677,
      "сот": 678,
      "азамат": 679,
      "түзету": 680,
      "бақыл": 681,
      "Ор": 682,
      "дықтан": 683,
      "белсен": 684,
      "уі": 685,
      "жүз": 686,
      "Сен": 687,
      "ындай": 688,
      "байлан": 689,
      "канди": 690,
      "асында": 691,
      "көрс": 692,
      "толықт": 693,
      "өң": 694,
      "аның": 695,
      "Ата": 696,
      "шешім": 697,
      "әділ": 698,
      "мыз": 699,
      "уақ": 700,
      "жатыр": 701,
      "қой": 702,
      "Заң": 703,
      "өзі": 704,
      "Мемлекет": 705,
      "әкімдер": 706,
      "бү": 707,
      "кес": 708,
      "сұр": 709,
      "Сенат": 710,
      "таст": 711,
      "маусым": 712,
      "ест": 713,
      "сайлан": 714,
      "партиялар": 715,
      "інші": 716,
      "ғана": 717,
      "сон": 718,
      "тын": 719,
      "ыстық": 720,
      "Біз": 721,
      "Жаңа": 722,
      "Осы": 723,
      "алып": 724,
      "жатқан": 725,
      "енгізу": 726,
      "бақылау": 727,
      "То": 728,
      "парат": 729,
      "Ел": 730,
      "сақ": 731,
      "қам": 732,
      "азар": 733,
      "орын": 734,
      "белсенді": 735,
      "там": 736,
      "басқару": 737,
      "кі": 738,
      "айтын": 739,
      "гілікті": 740,
      "қаев": 741,
      "қатар": 742,
      "түзетулер": 743,
      "жаз": 744,
      "аяс": 745,
      "інен": 746,
      "ылады": 747,
      "келген": 748,
      "өңір": 749,
      "нем": 750,
      "леум": 751,
      "ме": 752,
      "тіп": 753,
      "19": 754,
      "Тоқаев": 755,
      "ғал": 756,
      "жүргіз": 757,
      "байланысты": 758,
      "атап": 759,
      "ақты": 760,
      "қазір": 761,
      "Орталық": 762,
      "елі": 763,
      "болған": 764,
      "нау": 765,
      "аса": 766,
      "кейін": 767,
      "бұ": 768,
      "зім": 769,
      "басшысы": 770,
      "өкілдері": 771,
      "бұр": 772,
      "көз": 773,
      "алм": 774,
      "ейді": 775,
      "тиіс": 776,
      "гей": 777,
      "қатысу": 778,
      "есеп": 779,
      "сә": 780,
      "іт": 781,
      "ұн": 782,
      "діру": 783,
      "белгіл": 784,
      "ғни": 785,
      "қы": 786,
      "тір": 787,
      "қажет": 788,
      "кездесу": 789,
      "төрағасы": 790,
      "алат": 791,
      "дыр": 792,
      "бағы": 793,
      "штаб": 794,
      "реформалар": 795,
      "уақыт": 796,
      "абар": 797,
      "дейді": 798,
      "өмір": 799,
      "толықтыру": 800,
      "ист": 801,
      "сат": 802,
      "дел": 803,
      "ақыр": 804,
      "көрсет": 805,
      "тең": 806,
      "Сайл": 807,
      "дардың": 808,
      "теу": 809,
      "өткізу": 810,
      "ауға": 811,
      "басқа": 812,
      "беріл": 813,
      "жалпы": 814,
      "уә": 815,
      "қандай": 816,
      "жөніндегі": 817,
      "жергілікті": 818,
      "немесе": 819,
      "леуметтік": 820,
      "Ер": 821,
      "ган": 822,
      "ман": 823,
      "азаматтардың": 824,
      "даст": 825,
      "Сондықтан": 826,
      "хабар": 827,
      "орган": 828,
      "тағай": 829,
      "ісі": 830,
      "тұрғын": 831,
      "ит": 832,
      "үр": 833,
      "мәселелер": 834,
      "толықтырулар": 835,
      "мінде": 836,
      "бәс": 837,
      "арн": 838,
      "арал": 839,
      "қолдау": 840,
      "қабылдан": 841,
      "береді": 842,
      "кандидат": 843,
      "депутат": 844,
      "екенін": 845,
      "айту": 846,
      "бағыт": 847,
      "екі": 848,
      "ысында": 849,
      "мә": 850,
      "енгізілетін": 851,
      "жүзеге": 852,
      "қалып": 853,
      "облыстық": 854,
      "ағы": 855,
      "тап": 856,
      "лігі": 857,
      "хат": 858,
      "саясат": 859,
      "лау": 860,
      "тұ": 861,
      "жастар": 862,
      "әлеуметтік": 863,
      "ылып": 864,
      "дықтар": 865,
      "Халық": 866,
      "бі": 867,
      "шылық": 868,
      "құру": 869,
      "нан": 870,
      "келей": 871,
      "жылы": 872,
      "00": 873,
      "мүмкіндік": 874,
      "тікелей": 875,
      "шілік": 876,
      "комиссиясының": 877,
      "мүшелері": 878,
      "Сайлау": 879,
      "үй": 880,
      "сар": 881,
      "сына": 882,
      "ҚР": 883,
      "імді": 884,
      "институ": 885,
      "ли": 886,
      "тін": 887,
      "кезең": 888,
      "талқыл": 889,
      "тиж": 890,
      "жұмыстар": 891,
      "йт": 892,
      "нің": 893,
      "Қо": 894,
      "орт": 895,
      "дары": 896,
      "өзгеріс": 897,
      "Президенттің": 898,
      "бәсек": 899,
      "аға": 900,
      "тері": 901,
      "даму": 902,
      "әтиж": 903,
      "орн": 904,
      "күні": 905,
      "учаскел": 906,
      "ос": 907,
      "қолдан": 908,
      "Ақ": 909,
      "Ол": 910,
      "Олар": 911,
      "тау": 912,
      "ттық": 913,
      "хал": 914,
      "сайлауға": 915,
      "про": 916,
      "күшей": 917,
      "тыр": 918,
      "болатын": 919,
      "тағы": 920,
      "сайлаушылар": 921,
      "отырған": 922,
      "алд": 923,
      "қорғ": 924,
      "тек": 925,
      "өткен": 926,
      "өзгерту": 927,
      "бұрын": 928,
      "еу": 929,
      "Қазір": 930,
      "нәтиж": 931,
      "ары": 932,
      "болды": 933,
      "жария": 934,
      "сәй": 935,
      "Қазақстанның": 936,
      "қабылдау": 937,
      "рес": 938,
      "соң": 939,
      "ылым": 940,
      "бола": 941,
      "талап": 942,
      "шығару": 943,
      "iн": 944,
      "дең": 945,
      "ақпарат": 946,
      "еш": 947,
      "мек": 948,
      "мағ": 949,
      "қын": 950,
      "реформа": 951,
      "кет": 952,
      "ылды": 953,
      "дайын": 954,
      "қазақстан": 955,
      "ығын": 956,
      "деңгей": 957,
      "астам": 958,
      "202": 959,
      "президенттік": 960,
      "лығы": 961,
      "Жо": 962,
      "кон": 963,
      "алдағы": 964,
      "жоғары": 965,
      "Оның": 966,
      "тәр": 967,
      "аны": 968,
      "ықты": 969,
      "болуы": 970,
      "199": 971,
      "истр": 972,
      "ерт": 973,
      "асым": 974,
      "дарды": 975,
      "Бірақ": 976,
      "еліміздің": 977,
      "мин": 978,
      "дыру": 979,
      "парламент": 980,
      "келіс": 981,
      "жылғы": 982,
      "проц": 983,
      "Сот": 984,
      "бө": 985,
      "бөл": 986,
      "асыз": 987,
      "болса": 988,
      "байқау": 989,
      "сау": 990,
      "сол": 991,
      "әуел": 992,
      "АҚ": 993,
      "нақты": 994,
      "тармақ": 995,
      "өткізіл": 996,
      "мүшесі": 997,
      "олардың": 998,
      "аралық": 999,
      "хабарл": 1000,
      "мам": 1001,
      "ығ": 1002,
      "айн": 1003,
      "ысының": 1004,
      "тарих": 1005,
      "ретінде": 1006,
      "сондай": 1007,
      "сыз": 1008,
      "гінің": 1009,
      "амыз": 1010,
      "ова": 1011,
      "шілі": 1012,
      "Ен": 1013,
      "Қасым": 1014,
      "бірі": 1015,
      "кені": 1016,
      "бастам": 1017,
      "еттің": 1018,
      "түрде": 1019,
      "таңдау": 1020,
      "Бү": 1021,
      "ез": 1022,
      "шек": 1023,
      "атқар": 1024,
      "құқықтық": 1025,
      "сұрақ": 1026,
      "науқан": 1027,
      "бю": 1028,
      "еке": 1029,
      "баб": 1030,
      "резиденті": 1031,
      "кезінде": 1032,
      "мын": 1033,
      "шақыр": 1034,
      "алға": 1035,
      "бәсекел": 1036,
      "мү": 1037,
      "ог": 1038,
      "дігі": 1039,
      "мәслихат": 1040,
      "тыл": 1041,
      "мәслихаттар": 1042,
      "жаң": 1043,
      "берді": 1044,
      "ұйымдаст": 1045,
      "Жом": 1046,
      "гінде": 1047,
      "палат": 1048,
      "асындағы": 1049,
      "қадам": 1050,
      "Жомарт": 1051,
      "тоқ": 1052,
      "қалай": 1053,
      "Сондай": 1054,
      "міндет": 1055,
      "им": 1056,
      "ішінде": 1057,
      "әуелсіз": 1058,
      "келеді": 1059,
      "референдумның": 1060,
      "сәйкес": 1061,
      "Назар": 1062,
      "втор": 1063,
      "дал": 1064,
      "ци": 1065,
      "ерек": 1066,
      "тарын": 1067,
      "өтетін": 1068,
      "іске": 1069,
      "маусымда": 1070,
      "министр": 1071,
      "еті": 1072,
      "ымды": 1073,
      "болм": 1074,
      "Қазақстанды": 1075,
      "құқықтары": 1076,
      "гіне": 1077,
      "сыл": 1078,
      "бірге": 1079,
      "айтып": 1080,
      "демократиялық": 1081,
      "лауаз": 1082,
      "қамтам": 1083,
      "қорғау": 1084,
      "бері": 1085,
      "Сонымен": 1086,
      "хан": 1087,
      "референдумды": 1088,
      "Конституцияның": 1089,
      "жүйе": 1090,
      "негізгі": 1091,
      "біздің": 1092,
      "елдің": 1093,
      "әрбір": 1094,
      "беруге": 1095,
      "аралас": 1096,
      "қамтамасыз": 1097,
      "аб": 1098,
      "бей": 1099,
      "мей": 1100,
      "Саяс": 1101,
      "ри": 1102,
      "отырып": 1103,
      "үміт": 1104,
      "Бұ": 1105,
      "тө": 1106,
      "тады": 1107,
      "сарап": 1108,
      "йткені": 1109,
      "ұрт": 1110,
      "мән": 1111,
      "Назарбаев": 1112,
      "Кез": 1113,
      "мо": 1114,
      "оған": 1115,
      "тел": 1116,
      "ені": 1117,
      "айда": 1118,
      "айтты": 1119,
      "мәр": 1120,
      "норм": 1121,
      "есінің": 1122,
      "маңызы": 1123,
      "ұндай": 1124,
      "жин": 1125,
      "сай": 1126,
      "уына": 1127,
      "тізім": 1128,
      "жеткіз": 1129,
      "мәселе": 1130,
      "мәрте": 1131,
      "одан": 1132,
      "беретін": 1133,
      "өте": 1134,
      "талған": 1135,
      "мүд": 1136,
      "Автор": 1137,
      "Президенті": 1138,
      "ыту": 1139,
      "Өз": 1140,
      "икалық": 1141,
      "саны": 1142,
      "қайта": 1143,
      "бүкіл": 1144,
      "қазіргі": 1145,
      "бәсекелест": 1146,
      "көт": 1147,
      "сер": 1148,
      "Енді": 1149,
      "мың": 1150,
      "форм": 1151,
      "алдық": 1152,
      "асыр": 1153,
      "дарының": 1154,
      "сенім": 1155,
      "өкілетті": 1156,
      "жауапкер": 1157,
      "ашық": 1158,
      "2022": 1159,
      "30": 1160,
      "зерт": 1161,
      "сек": 1162,
      "ара": 1163,
      "барысында": 1164,
      "Республикасының": 1165,
      "иын": 1166,
      "сп": 1167,
      "дап": 1168,
      "өзін": 1169,
      "Қазақстанда": 1170,
      "халықтық": 1171,
      "айтқан": 1172,
      "түрлі": 1173,
      "жетті": 1174,
      "ықп": 1175,
      "еміз": 1176,
      "көш": 1177,
      "облыс": 1178,
      "10": 1179,
      "Яғни": 1180,
      "ация": 1181,
      "жеке": 1182,
      "стар": 1183,
      "ескер": 1184,
      "халықаралық": 1185,
      "заңн": 1186,
      "түсіндір": 1187,
      "үлкен": 1188,
      "Ай": 1189,
      "Мұ": 1190,
      "ие": 1191,
      "міз": 1192,
      "топ": 1193,
      "шет": 1194,
      "лары": 1195,
      "болаша": 1196,
      "Сол": 1197,
      "кция": 1198,
      "сі": 1199,
      "фи": 1200,
      "РЕ": 1201,
      "ғи": 1202,
      "терін": 1203,
      "өкілеттік": 1204,
      "депутаттары": 1205,
      "Ау": 1206,
      "бет": 1207,
      "шісі": 1208,
      "әкімдерін": 1209,
      "институт": 1210,
      "енді": 1211,
      "атқару": 1212,
      "айы": 1213,
      "асыру": 1214,
      "есіне": 1215,
      "басты": 1216,
      "мақсат": 1217,
      "әлім": 1218,
      "белгілі": 1219,
      "мүдде": 1220,
      "көтер": 1221,
      "бо": 1222,
      "мәлім": 1223,
      "тас": 1224,
      "биліктің": 1225,
      "Егер": 1226,
      "Бүгін": 1227,
      "мер": 1228,
      "ғына": 1229,
      "орталық": 1230,
      "келе": 1231,
      "құқығы": 1232,
      "пайыз": 1233,
      "орынбас": 1234,
      "айтуынша": 1235,
      "ашыл": 1236,
      "ерік": 1237,
      "бағ": 1238,
      "алары": 1239,
      "бастап": 1240,
      "түсіндіру": 1241,
      "Ас": 1242,
      "стік": 1243,
      "басы": 1244,
      "өзгерістерді": 1245,
      "маған": 1246,
      "жағдайда": 1247,
      "лай": 1248,
      "інше": 1249,
      "елді": 1250,
      "құқығын": 1251,
      "қалыптаст": 1252,
      "АН": 1253,
      "Адам": 1254,
      "яғни": 1255,
      "қажетті": 1256,
      "партиясының": 1257,
      "арналған": 1258,
      "коном": 1259,
      "дi": 1260,
      "жұрт": 1261,
      "десу": 1262,
      "партиялардың": 1263,
      "AN": 1264,
      "Әб": 1265,
      "оны": 1266,
      "Жоғары": 1267,
      "лауазым": 1268,
      "Жал": 1269,
      "зам": 1270,
      "лері": 1271,
      "тр": 1272,
      "ындау": 1273,
      "ұлтан": 1274,
      "депутаты": 1275,
      "200": 1276,
      "істе": 1277,
      "тәуелсіз": 1278,
      "алатын": 1279,
      "тардың": 1280,
      "берген": 1281,
      "лігін": 1282,
      "Бас": 1283,
      "ая": 1284,
      "кері": 1285,
      "эконом": 1286,
      "тарлық": 1287,
      "барлығы": 1288,
      "қолдай": 1289,
      "Алм": 1290,
      "жі": 1291,
      "зір": 1292,
      "нен": 1293,
      "Өйткені": 1294,
      "алардың": 1295,
      "Парламенттің": 1296,
      "мамыр": 1297,
      "мәртеб": 1298,
      "Мен": 1299,
      "кәс": 1300,
      "пе": 1301,
      "ылатын": 1302,
      "айлы": 1303,
      "кеш": 1304,
      "партиясы": 1305,
      "зерттеу": 1306,
      "AT": 1307,
      "ми": 1308,
      "алу": 1309,
      "шылардың": 1310,
      "толық": 1311,
      "енгізілген": 1312,
      "Ерлан": 1313,
      "MAN": 1314,
      "пер": 1315,
      "уни": 1316,
      "алын": 1317,
      "асына": 1318,
      "референдумда": 1319,
      "окру": 1320,
      "қызметін": 1321,
      "бюд": 1322,
      "MANAT": 1323,
      "ья": 1324,
      "імен": 1325,
      "ететін": 1326,
      "екті": 1327,
      "әсер": 1328,
      "тұрғындар": 1329,
      "фили": 1330,
      "тыру": 1331,
      "элек": 1332,
      "ілген": 1333,
      "тарап": 1334,
      "басым": 1335,
      "атынан": 1336,
      "тану": 1337,
      "тиімді": 1338,
      "жасау": 1339,
      "AMANAT": 1340,
      "сам": 1341,
      "етеді": 1342,
      "есінде": 1343,
      "бірле": 1344,
      "сияқ": 1345,
      "201": 1346,
      "мандат": 1347,
      "Кездесу": 1348,
      "Жол": 1349,
      "Кең": 1350,
      "куә": 1351,
      "Ұл": 1352,
      "аймақ": 1353,
      "басш": 1354,
      "керлер": 1355,
      "білдір": 1356,
      "мүшелер": 1357,
      "жүрген": 1358,
      "уәкіл": 1359,
      "хатшысы": 1360,
      "тәрті": 1361,
      "АР": 1362,
      "уын": 1363,
      "шын": 1364,
      "ұлттық": 1365,
      "заңдар": 1366,
      "жүйесін": 1367,
      "Республика": 1368,
      "Республикасы": 1369,
      "сияқты": 1370,
      "an": 1371,
      "Республикалық": 1372,
      "дұр": 1373,
      "назар": 1374,
      "арасында": 1375,
      "ыстыр": 1376,
      "келіп": 1377,
      "халқ": 1378,
      "келісім": 1379,
      "Жер": 1380,
      "бал": 1381,
      "жыр": 1382,
      "мейді": 1383,
      "ғылым": 1384,
      "тарды": 1385,
      "өзінің": 1386,
      "ұлы": 1387,
      "басқар": 1388,
      "ыстағы": 1389,
      "комиссиясы": 1390,
      "аудандық": 1391,
      "АЙ": 1392,
      "бебі": 1393,
      "орталы": 1394,
      "хабарлайды": 1395,
      "вер": 1396,
      "кір": 1397,
      "сит": 1398,
      "алдар": 1399,
      "ори": 1400,
      "қала": 1401,
      "әділетті": 1402,
      "аясында": 1403,
      "1995": 1404,
      "версит": 1405,
      "жай": 1406,
      "ра": 1407,
      "ұстан": 1408,
      "елен": 1409,
      "елік": 1410,
      "қараст": 1411,
      "іміздің": 1412,
      "ұсынылған": 1413,
      "бекі": 1414,
      "бағдар": 1415,
      "Алматы": 1416,
      "АТ": 1417,
      "тәж": 1418,
      "ландыру": 1419,
      "учаскелер": 1420,
      "атқарушы": 1421,
      "мерзім": 1422,
      "орынбасары": 1423,
      "Жалпы": 1424,
      "істі": 1425,
      "ұс": 1426,
      "өй": 1427,
      "даған": 1428,
      "атты": 1429,
      "ресур": 1430,
      "лен": 1431,
      "республик": 1432,
      "сыр": 1433,
      "ауыс": 1434,
      "елде": 1435,
      "көрін": 1436,
      "азаматтық": 1437,
      "дұрыс": 1438,
      "Төрағ": 1439,
      "Түр": 1440,
      "үст": 1441,
      "өзге": 1442,
      "тағ": 1443,
      "сайлауы": 1444,
      "заңды": 1445,
      "заңға": 1446,
      "қоғамның": 1447,
      "ымыздың": 1448,
      "арттыру": 1449,
      "алғаш": 1450,
      "ерекше": 1451,
      "бәсекелестік": 1452,
      "басшысының": 1453,
      "Де": 1454,
      "рек": 1455,
      "уда": 1456,
      "әлі": 1457,
      "әзір": 1458,
      "ала": 1459,
      "екінші": 1460,
      "іри": 1461,
      "тармағ": 1462,
      "қазақстандықтар": 1463,
      "15": 1464,
      "iк": 1465,
      "Екін": 1466,
      "Мәс": 1467,
      "шан": 1468,
      "елдер": 1469,
      "амын": 1470,
      "халыққа": 1471,
      "діктер": 1472,
      "қабылдай": 1473,
      "оқи": 1474,
      "бұз": 1475,
      "халқы": 1476,
      "күшейту": 1477,
      "тоқтал": 1478,
      "Саяси": 1479,
      "төмен": 1480,
      "%-": 1481,
      "АУ": 1482,
      "бәрі": 1483,
      "иев": 1484,
      "кү": 1485,
      "по": 1486,
      "айым": 1487,
      "айша": 1488,
      "аларын": 1489,
      "қатысып": 1490,
      "елімізде": 1491,
      "қазақстандық": 1492,
      "тәжіри": 1493,
      "АЛ": 1494,
      "рөл": 1495,
      "ысалы": 1496,
      "шілер": 1497,
      "заңнам": 1498,
      "25": 1499,
      "iл": 1500,
      "жори": 1501,
      "лам": 1502,
      "мұ": 1503,
      "гіт": 1504,
      "дени": 1505,
      "ина": 1506,
      "учаскес": 1507,
      "осындай": 1508,
      "цион": 1509,
      "шім": 1510,
      "анық": 1511,
      "өзгерістердің": 1512,
      "мемлекеттің": 1513,
      "қауым": 1514,
      "кеңес": 1515,
      "өңірлер": 1516,
      "кәсіп": 1517,
      "НД": 1518,
      "ғыр": 1519,
      "өтеді": 1520,
      "баптың": 1521,
      "жақсы": 1522,
      "бағытталған": 1523,
      "байқаушылар": 1524,
      "қалыптастыру": 1525,
      "жи": 1526,
      "сін": 1527,
      "ғат": 1528,
      "ынды": 1529,
      "дігін": 1530,
      "иялық": 1531,
      "реда": 1532,
      "қарап": 1533,
      "аларды": 1534,
      "кеңей": 1535,
      "ындайды": 1536,
      "уақытта": 1537,
      "тағдыр": 1538,
      "Екінші": 1539,
      "нұс": 1540,
      "со": 1541,
      "қыс": 1542,
      "іліп": 1543,
      "тарға": 1544,
      "ғыз": 1545,
      "ғым": 1546,
      "терді": 1547,
      "мақс": 1548,
      "бүгін": 1549,
      "тарихи": 1550,
      "Осыл": 1551,
      "Қар": 1552,
      "дек": 1553,
      "деу": 1554,
      "бірінші": 1555,
      "тұрған": 1556,
      "мажори": 1557,
      "редакция": 1558,
      "18": 1559,
      "жең": 1560,
      "лет": 1561,
      "тарт": 1562,
      "бле": 1563,
      "қос": 1564,
      "партиялық": 1565,
      "депутаттарының": 1566,
      "Әбдір": 1567,
      "Палат": 1568,
      "алаң": 1569,
      "неше": 1570,
      "сенат": 1571,
      "білім": 1572,
      "жөнінде": 1573,
      "әлем": 1574,
      "акті": 1575,
      "Нұрлан": 1576,
      "дайындық": 1577,
      "модел": 1578,
      "бат": 1579,
      "дүн": 1580,
      "өту": 1581,
      "туға": 1582,
      "табыл": 1583,
      "ейтін": 1584,
      "ларын": 1585,
      "тердің": 1586,
      "Алайда": 1587,
      "ымызға": 1588,
      "университ": 1589,
      "сөй": 1590,
      "Әділ": 1591,
      "аумақ": 1592,
      "ілі": 1593,
      "сайлаудың": 1594,
      "Конституциясына": 1595,
      "өзгерістерге": 1596,
      "сіздік": 1597,
      "демократияландыру": 1598,
      "Қазіргі": 1599,
      "ұйымдастыру": 1600,
      "округ": 1601,
      "БАҚ": 1602,
      "Се": 1603,
      "жым": 1604,
      "шық": 1605,
      "Әр": 1606,
      "арасындағы": 1607,
      "ере": 1608,
      "құқықтарын": 1609,
      "учаск": 1610,
      "жақын": 1611,
      "сайланған": 1612,
      "тағайындау": 1613,
      "өзгертулер": 1614,
      "шектеу": 1615,
      "ұйымдастыр": 1616,
      "самбле": 1617,
      "Жолдау": 1618,
      "Ұлттық": 1619,
      "спар": 1620,
      "хн": 1621,
      "ян": 1622,
      "елдегі": 1623,
      "циялық": 1624,
      "бірнеше": 1625,
      "шылығы": 1626,
      "қалалық": 1627,
      "жылдың": 1628,
      "шылары": 1629,
      "леу": 1630,
      "енгізіледі": 1631,
      "кандида": 1632,
      "көзқар": 1633,
      "міндетті": 1634,
      "пози": 1635,
      "33": 1636,
      "бес": 1637,
      "дәл": 1638,
      "мұндай": 1639,
      "ныс": 1640,
      "ода": 1641,
      "си": 1642,
      "анықт": 1643,
      "дерінің": 1644,
      "жоб": 1645,
      "суд": 1646,
      "Алдағы": 1647,
      "негізінде": 1648,
      "шілігі": 1649,
      "айтқанда": 1650,
      "ректор": 1651,
      "Осылайша": 1652,
      "ауқ": 1653,
      "тарына": 1654,
      "өтін": 1655,
      "теп": 1656,
      "дамыту": 1657,
      "жоспар": 1658,
      "бастама": 1659,
      "ұсынған": 1660,
      "дитор": 1661,
      "мәселелері": 1662,
      "қауіп": 1663,
      "жанындағы": 1664,
      "шару": 1665,
      "Тоқаевтың": 1666,
      "Дауыс": 1667,
      "Күн": 1668,
      "мет": 1669,
      "ун": 1670,
      "уде": 1671,
      "Үкім": 1672,
      "енген": 1673,
      "ати": 1674,
      "ілді": 1675,
      "етінің": 1676,
      "қалған": 1677,
      "халықпен": 1678,
      "құрам": 1679,
      "өткізді": 1680,
      "адамдар": 1681,
      "мүмкіндігі": 1682,
      "электор": 1683,
      "бағдарлам": 1684,
      "Түркі": 1685,
      "Әбдіров": 1686,
      "ереж": 1687,
      "лес": 1688,
      "май": 1689,
      "Әшім": 1690,
      "сайлауда": 1691,
      "құрыл": 1692,
      "жүйесі": 1693,
      "Ауыл": 1694,
      "тарапынан": 1695,
      "Себебі": 1696,
      "диторлық": 1697,
      "Жар": 1698,
      "СК": 1699,
      "ег": 1700,
      "өтіп": 1701,
      "онда": 1702,
      "дент": 1703,
      "бере": 1704,
      "Партия": 1705,
      "себе": 1706,
      "таңда": 1707,
      "тұжыр": 1708,
      "болмайды": 1709,
      "ұстаным": 1710,
      "Ар": 1711,
      "Би": 1712,
      "ул": 1713,
      "ұқ": 1714,
      "ақтыл": 1715,
      "тарының": 1716,
      "ойлай": 1717,
      "атынын": 1718,
      "мақұл": 1719,
      "опор": 1720,
      "алдымен": 1721,
      "Қоғам": 1722,
      "Ақпарат": 1723,
      "бұрынғы": 1724,
      "мәслихаттардың": 1725,
      "далан": 1726,
      "Мысалы": 1727,
      "бәр": 1728,
      "пақ": 1729,
      "тай": 1730,
      "айқын": 1731,
      "сапар": 1732,
      "дарын": 1733,
      "көң": 1734,
      "лығын": 1735,
      "кездесті": 1736,
      "жолы": 1737,
      "алдында": 1738,
      "шақырды": 1739,
      "Ассамбле": 1740,
      "рөлін": 1741,
      "ЕР": 1742,
      "мына": 1743,
      "фр": 1744,
      "шік": 1745,
      "олог": 1746,
      "әрек": 1747,
      "қоз": 1748,
      "әкімі": 1749,
      "ұсыныстар": 1750,
      "билікке": 1751,
      "өлім": 1752,
      "бақылаушылар": 1753,
      "Авторы": 1754,
      "iм": 1755,
      "ада": 1756,
      "об": 1757,
      "Әбіл": 1758,
      "ғыш": 1759,
      "сағат": 1760,
      "барынша": 1761,
      "тыйым": 1762,
      "керлері": 1763,
      "партияның": 1764,
      "қатысуға": 1765,
      "ытынды": 1766,
      "кейбір": 1767,
      "Мемлекеттік": 1768,
      "мәселелерді": 1769,
      "талқылан": 1770,
      "үміткер": 1771,
      "аумақтық": 1772,
      "Күні": 1773,
      "Сп": 1774,
      "мәжіл": 1775,
      "үкім": 1776,
      "ысқа": 1777,
      "сайлаулар": 1778,
      "жобасы": 1779,
      "құрылған": 1780,
      "Президентінің": 1781,
      "қазақ": 1782,
      "депутаттардың": 1783,
      "пропор": 1784,
      "Заңға": 1785,
      "қабылданған": 1786,
      "қалыптас": 1787,
      "жариялан": 1788,
      "қарастыр": 1789,
      "актілер": 1790,
      "атив": 1791,
      "Түркістан": 1792,
      "себеп": 1793,
      "ЕН": 1794,
      "из": 1795,
      "лем": 1796,
      "үгіт": 1797,
      "өс": 1798,
      "аңтар": 1799,
      "бірақ": 1800,
      "икері": 1801,
      "заңдарды": 1802,
      "қатысқан": 1803,
      "шешімдер": 1804,
      "өкілдерімен": 1805,
      "Қошан": 1806,
      "учаскелік": 1807,
      "Бұған": 1808,
      "сарапшылар": 1809,
      "ықпал": 1810,
      "ресурстар": 1811,
      "Қошанов": 1812,
      "\".": 1813,
      "at": 1814,
      "Дем": 1815,
      "Кө": 1816,
      "бен": 1817,
      "төр": 1818,
      "істер": 1819,
      "айқ": 1820,
      "орда": 1821,
      "ейік": 1822,
      "инар": 1823,
      "комиссиялар": 1824,
      "көпшілік": 1825,
      "Олардың": 1826,
      "жеткізді": 1827,
      "мақсатында": 1828,
      "тұжырым": 1829,
      "kz": 1830,
      "ОСК": 1831,
      "пас": 1832,
      "сында": 1833,
      "діре": 1834,
      "техн": 1835,
      "заңның": 1836,
      "құруға": 1837,
      "імізді": 1838,
      "биыл": 1839,
      "еңбек": 1840,
      "ламенті": 1841,
      "комит": 1842,
      "жетіл": 1843,
      "қатысуы": 1844,
      "директор": 1845,
      "әуір": 1846,
      "Сенаттың": 1847,
      "тірке": 1848,
      "жұмыстары": 1849,
      "қолданыстағы": 1850,
      "сайлаушылардың": 1851,
      "экономикалық": 1852,
      "судья": 1853,
      "ауқымды": 1854,
      "Мұндай": 1855,
      "СТ": 1856,
      "Сұлтан": 1857,
      "нас": 1858,
      "ңіз": 1859,
      "пайдалан": 1860,
      "азаматтың": 1861,
      "бөлім": 1862,
      "сауал": 1863,
      "беріп": 1864,
      "қарапайым": 1865,
      "кандидатур": 1866,
      "пропорцион": 1867,
      "11": 1868,
      "Обл": 1869,
      "ви": 1870,
      "егінде": 1871,
      "кв": 1872,
      "ұз": 1873,
      "атындағы": 1874,
      "аудиторлық": 1875,
      "қағи": 1876,
      "еминар": 1877,
      "баян": 1878,
      "бірқатар": 1879,
      "инг": 1880,
      "жерде": 1881,
      "ымызды": 1882,
      "жалғ": 1883,
      "беріледі": 1884,
      "мәдени": 1885,
      "институты": 1886,
      "алдындағы": 1887,
      "бөлігі": 1888,
      "мандатты": 1889,
      "Әшімбаев": 1890,
      "насих": 1891,
      "56": 1892,
      "Ең": 1893,
      "астан": 1894,
      "делі": 1895,
      "асқан": 1896,
      "емін": 1897,
      "сап": 1898,
      "іңіз": 1899,
      "шығ": 1900,
      "тиісті": 1901,
      "салыс": 1902,
      "ашақ": 1903,
      "алмайды": 1904,
      "арнайы": 1905,
      "жұмыстарын": 1906,
      "бабына": 1907,
      "электоралдық": 1908,
      "ативтік": 1909,
      "ДЫ": 1910,
      "Он": 1911,
      "Тұ": 1912,
      "тыс": 1913,
      "құл": 1914,
      "қиын": 1915,
      "еркін": 1916,
      "айта": 1917,
      "ылсын": 1918,
      "ыңыз": 1919,
      "реж": 1920,
      "барып": 1921,
      "қара": 1922,
      "Конституцияда": 1923,
      "лерін": 1924,
      "биғи": 1925,
      "супер": 1926,
      "ұсынылып": 1927,
      "өткізуге": 1928,
      "арттыр": 1929,
      "қорытынды": 1930,
      "сайланады": 1931,
      "гейлі": 1932,
      "берілген": 1933,
      "танушы": 1934,
      "бекітіл": 1935,
      "учаскесі": 1936,
      "ойлаймын": 1937,
      "насихат": 1938,
      "бін": 1939,
      "жем": 1940,
      "қу": 1941,
      "меншік": 1942,
      "өзара": 1943,
      "қада": 1944,
      "түбе": 1945,
      "тегі": 1946,
      "теген": 1947,
      "облысы": 1948,
      "учаске": 1949,
      "сеп": 1950,
      "үлгі": 1951,
      "шара": 1952,
      "нығай": 1953,
      "айнал": 1954,
      "бостан": 1955,
      "аяқ": 1956,
      "филиал": 1957,
      "Азам": 1958,
      "ОВ": 1959,
      "ЫН": 1960,
      "гр": 1961,
      "майды": 1962,
      "тақыр": 1963,
      "ұст": 1964,
      "ылы": 1965,
      "келетін": 1966,
      "ларды": 1967,
      "кент": 1968,
      "урн": 1969,
      "Нұрс": 1970,
      "көрсетеді": 1971,
      "болашағы": 1972,
      "мәртебесі": 1973,
      "мажоритарлық": 1974,
      "өтініш": 1975,
      "түбегейлі": 1976,
      "Бай": 1977,
      "Мәу": 1978,
      "ах": 1979,
      "жайлы": 1980,
      "пан": 1981,
      "ңғыш": 1982,
      "дады": 1983,
      "іледі": 1984,
      "болу": 1985,
      "болмақ": 1986,
      "қарау": 1987,
      "қосу": 1988,
      "жүйені": 1989,
      "адамның": 1990,
      "пікірін": 1991,
      "Еліміз": 1992,
      "тексер": 1993,
      "тәртіп": 1994,
      "бюдж": 1995,
      "мынадай": 1996,
      "Мәулен": 1997,
      "Жастар": 1998,
      "Серік": 1999,
      "мін": 2000,
      "пат": 2001,
      "рө": 2002,
      "ушылық": 2003,
      "еле": 2004,
      "қарай": 2005,
      "лігінің": 2006,
      "терге": 2007,
      "тиiм": 2008,
      "ғарғы": 2009,
      "Парламенті": 2010,
      "облем": 2011,
      "салу": 2012,
      "реформаның": 2013,
      "проблем": 2014,
      "қайтар": 2015,
      "шаралар": 2016,
      "Бірінші": 2017,
      "қойнау": 2018,
      "белгіленген": 2019,
      "реформаларды": 2020,
      "жариял": 2021,
      "бірлестік": 2022,
      "алғашқы": 2023,
      "рөлі": 2024,
      "тиiмдi": 2025,
      "ЕРЕ": 2026,
      "гi": 2027,
      "дә": 2028,
      "мұн": 2029,
      "тет": 2030,
      "ұжым": 2031,
      "табиғи": 2032,
      "қарсы": 2033,
      "құз": 2034,
      "шыға": 2035,
      "таныт": 2036,
      "ұсынады": 2037,
      "білдіре": 2038,
      "екені": 2039,
      "меген": 2040,
      "реформалардың": 2041,
      "рине": 2042,
      "өкілеттігін": 2043,
      "АМ": 2044,
      "зия": 2045,
      "күй": 2046,
      "ллет": 2047,
      "на": 2048,
      "тем": 2049,
      "қыр": 2050,
      "Әрине": 2051,
      "ери": 2052,
      "елге": 2053,
      "болашақ": 2054,
      "дарға": 2055,
      "білдіру": 2056,
      "депутаттарын": 2057,
      "тастау": 2058,
      "бұған": 2059,
      "тағайындайды": 2060,
      "проце": 2061,
      "жаңғыр": 2062,
      "жауапкершілі": 2063,
      "түсіндірді": 2064,
      "Менің": 2065,
      "мақсаты": 2066,
      "Палата": 2067,
      "дүни": 2068,
      "урнал": 2069,
      "құзыр": 2070,
      "­­": 2071,
      "гім": 2072,
      "анс": 2073,
      "ауы": 2074,
      "бірлес": 2075,
      "қарама": 2076,
      "ойын": 2077,
      "қана": 2078,
      "кезегінде": 2079,
      "дерін": 2080,
      "салын": 2081,
      "кеңінен": 2082,
      "пайда": 2083,
      "естің": 2084,
      "алмай": 2085,
      "орнал": 2086,
      "ресми": 2087,
      "бастамасы": 2088,
      "мүшелерінің": 2089,
      "нысан": 2090,
      "көңіл": 2091,
      "ОР": 2092,
      "СІ": 2093,
      "ав": 2094,
      "жу": 2095,
      "жой": 2096,
      "мат": 2097,
      "маз": 2098,
      "шарт": 2099,
      "ғыс": 2100,
      "арда": 2101,
      "сту": 2102,
      "асынан": 2103,
      "кем": 2104,
      "кезек": 2105,
      "жүйесіне": 2106,
      "ретте": 2107,
      "кездес": 2108,
      "шешу": 2109,
      "жалға": 2110,
      "төрағалары": 2111,
      "мауы": 2112,
      "Атап": 2113,
      "сәт": 2114,
      "бөлек": 2115,
      "министрі": 2116,
      "Саясат": 2117,
      "позиция": 2118,
      "Ассамблеяс": 2119,
      "Спикері": 2120,
      "50": 2121,
      "зат": 2122,
      "ғының": 2123,
      "етіп": 2124,
      "жылдан": 2125,
      "лығына": 2126,
      "Референдумға": 2127,
      "Халықтың": 2128,
      "Төрағасы": 2129,
      "әрекет": 2130,
      "ллетен": 2131,
      "27": 2132,
      "Отан": 2133,
      "мон": 2134,
      "сүй": 2135,
      "тұл": 2136,
      "тәс": 2137,
      "әң": 2138,
      "арлар": 2139,
      "айыр": 2140,
      "ылуы": 2141,
      "туыстар": 2142,
      "болуға": 2143,
      "халықты": 2144,
      "жою": 2145,
      "тұратын": 2146,
      "оқыту": 2147,
      "ауылдық": 2148,
      "герлер": 2149,
      "тілшісі": 2150,
      "соттың": 2151,
      "Біздің": 2152,
      "кездесулер": 2153,
      "тапсыр": 2154,
      "ақпараттық": 2155,
      "кеткен": 2156,
      "маман": 2157,
      "ығының": 2158,
      "палата": 2159,
      "спорт": 2160,
      "Бүгінгі": 2161,
      "пайызы": 2162,
      "заман": 2163,
      "тәртібі": 2164,
      "Мәселен": 2165,
      "iлi": 2166,
      "одақ": 2167,
      "ология": 2168,
      "жетілдіру": 2169,
      "Онда": 2170,
      "суперпрезиденттік": 2171,
      "Нұрсұлтан": 2172,
      "%,": 2173,
      "man": 2174,
      "Бар": 2175,
      "Рес": 2176,
      "УМ": 2177,
      "зор": 2178,
      "пл": 2179,
      "уіне": 2180,
      "ысына": 2181,
      "орта": 2182,
      "сайлауына": 2183,
      "дердің": 2184,
      "қолға": 2185,
      "жасап": 2186,
      "қатысушылар": 2187,
      "тағайын": 2188,
      "мейтін": 2189,
      "Бұдан": 2190,
      "РЕФ": 2191,
      "тоқталды": 2192,
      "НДУМ": 2193,
      "жиі": 2194,
      "модель": 2195,
      "пасөз": 2196,
      "Іс": 2197,
      "Мәж": 2198,
      "Не": 2199,
      "далған": 2200,
      "мол": 2201,
      "шақ": 2202,
      "эк": 2203,
      "үдері": 2204,
      "ән": 2205,
      "артық": 2206,
      "дығы": 2207,
      "Қазақстандағы": 2208,
      "құжат": 2209,
      "тұрақты": 2210,
      "жасауға": 2211,
      "Мәжілісінің": 2212,
      "сотқа": 2213,
      "бірлесті": 2214,
      "тәжіриб": 2215,
      "ЕРЕНДУМ": 2216,
      "қарамастан": 2217,
      "РЕФЕРЕНДУМ": 2218,
      "17": 2219,
      "26": 2220,
      "Есеп": 2221,
      "ТІ": 2222,
      "гел": 2223,
      "жел": 2224,
      "журнал": 2225,
      "ыш": 2226,
      "енің": 2227,
      "ату": 2228,
      "туында": 2229,
      "сайлауды": 2230,
      "ұлт": 2231,
      "заңда": 2232,
      "қоса": 2233,
      "қолдап": 2234,
      "әкімді": 2235,
      "қылм": 2236,
      "түседі": 2237,
      "сала": 2238,
      "мүше": 2239,
      "азаматтарды": 2240,
      "әкімдерді": 2241,
      "жатқанын": 2242,
      "бұқар": 2243,
      "есепт": 2244,
      "дамуына": 2245,
      "кетейік": 2246,
      "ерекш": 2247,
      "табылады": 2248,
      "Үкімет": 2249,
      "Әбілов": 2250,
      "12": 2251,
      "98": 2252,
      "en": 2253,
      "Ос": 2254,
      "Сар": 2255,
      "далады": 2256,
      "ко": 2257,
      "күр": 2258,
      "фун": 2259,
      "алау": 2260,
      "менші": 2261,
      "ендер": 2262,
      "аттардың": 2263,
      "қалалар": 2264,
      "заңмен": 2265,
      "аларға": 2266,
      "кілікті": 2267,
      "партияға": 2268,
      "қатыса": 2269,
      "ұсыныс": 2270,
      "маңызын": 2271,
      "жүріп": 2272,
      "өзгереді": 2273,
      "еліміздегі": 2274,
      "акция": 2275,
      "істің": 2276,
      "сақтау": 2277,
      "алмайтын": 2278,
      "аралап": 2279,
      "орнына": 2280,
      "соңғы": 2281,
      "транс": 2282,
      "бюджет": 2283,
      "халқының": 2284,
      "Демек": 2285,
      "Осындай": 2286,
      "24": 2287,
      "Aman": 2288,
      "tan": 2289,
      "бу": 2290,
      "шама": 2291,
      "Әкім": 2292,
      "артады": 2293,
      "атсалыс": 2294,
      "түсу": 2295,
      "қаласының": 2296,
      "құрылым": 2297,
      "ұсынып": 2298,
      "мәселесі": 2299,
      "стігін": 2300,
      "кеңесінің": 2301,
      "ішкі": 2302,
      "ұйымдар": 2303,
      "түзетулерді": 2304,
      "штабтың": 2305,
      "теңдік": 2306,
      "органдар": 2307,
      "айтуға": 2308,
      "соңында": 2309,
      "iнде": 2310,
      "бөлін": 2311,
      "бюллетен": 2312,
      "жаңар": 2313,
      "бүкілхалықтық": 2314,
      "Кеңес": 2315,
      "Депут": 2316,
      "күшейтуге": 2317,
      "Қоғамдық": 2318,
      "изм": 2319,
      "Тұңғыш": 2320,
      "филиалының": 2321,
      "жалғаст": 2322,
      "40": 2323,
      "АЗ": 2324,
      "гелі": 2325,
      "кл": 2326,
      "рәс": 2327,
      "це": 2328,
      "орайда": 2329,
      "неге": 2330,
      "баспасөз": 2331,
      "етінін": 2332,
      "қаласында": 2333,
      "индек": 2334,
      "жобас": 2335,
      "терінің": 2336,
      "асты": 2337,
      "тұрғы": 2338,
      "билікті": 2339,
      "сез": 2340,
      "Референдумды": 2341,
      "оңт": 2342,
      "көптеген": 2343,
      "оларды": 2344,
      "жалпыхалықтық": 2345,
      "нәтижесінде": 2346,
      "ешқандай": 2347,
      "жуық": 2348,
      "Amanat": 2349,
      "рәсім": 2350,
      "?\"": 2351,
      "Жи": 2352,
      "Тіл": 2353,
      "теді": 2354,
      "тқы": 2355,
      "үз": 2356,
      "аламыз": 2357,
      "өзекті": 2358,
      "орында": 2359,
      "аман": 2360,
      "генмен": 2361,
      "қарж": 2362,
      "ҚазАқпарат": 2363,
      "келді": 2364,
      "қалалардың": 2365,
      "айтылған": 2366,
      "өкілді": 2367,
      "ұсынылады": 2368,
      "облыстар": 2369,
      "қабылдаған": 2370,
      "жанынан": 2371,
      "оқу": 2372,
      "ұйымдардың": 2373,
      "жақты": 2374,
      "есептен": 2375,
      "көрсетілген": 2376,
      "Соттың": 2377,
      "таңдауын": 2378,
      "Назарбаевтың": 2379,
      "Мұх": 2380,
      "зерттеулер": 2381,
      "тұрғындарымен": 2382,
      "республика": 2383,
      "Дегенмен": 2384,
      "оқиғ": 2385,
      "шыққан": 2386,
      "Билік": 2387,
      "тетік": 2388,
      "студент": 2389,
      "әңгім": 2390,
      "iр": 2391,
      "Еур": 2392,
      "Жақ": 2393,
      "Сіз": 2394,
      "Тәуелсіз": 2395,
      "лайн": 2396,
      "нәр": 2397,
      "шалық": 2398,
      "ҒА": 2399,
      "арат": 2400,
      "дығын": 2401,
      "асып": 2402,
      "есілі": 2403,
      "үштен": 2404,
      "іпті": 2405,
      "құрылады": 2406,
      "тиесілі": 2407,
      "толған": 2408,
      "сөздер": 2409,
      "жағдайлар": 2410,
      "ындайтын": 2411,
      "белсенділік": 2412,
      "қолдауға": 2413,
      "талқылады": 2414,
      "ешкім": 2415,
      "экономик": 2416,
      "қолдайтын": 2417,
      "шынайы": 2418,
      "қысқар": 2419,
      "жауапкершілігін": 2420,
      "тәсіл": 2421,
      ").": 2422,
      "72": 2423,
      "Жұм": 2424,
      "Кей": 2425,
      "ЛАУ": 2426,
      "Оған": 2427,
      "егер": 2428,
      "же": 2429,
      "мал": 2430,
      "тн": 2431,
      "тоб": 2432,
      "ҚЫ": 2433,
      "ісіне": 2434,
      "қалды": 2435,
      "қою": 2436,
      "құж": 2437,
      "бастысы": 2438,
      "қоғамда": 2439,
      "тұрақтыл": 2440,
      "облысында": 2441,
      "күнге": 2442,
      "сөзсіз": 2443,
      "жарқын": 2444,
      "сұран": 2445,
      "депутаттық": 2446,
      "1999": 2447,
      "нормативтік": 2448,
      "2007": 2449,
      "сипат": 2450,
      "жоспарлан": 2451,
      "шаруашыл": 2452,
      "өсім": 2453,
      "тіркеу": 2454,
      "құлақ": 2455,
      "қойнауы": 2456,
      "Ресей": 2457,
      "Негіз": 2458,
      "гері": 2459,
      "иде": 2460,
      "нар": 2461,
      "рыз": 2462,
      "соның": 2463,
      "тiк": 2464,
      "қаңтар": 2465,
      "атор": 2466,
      "аудар": 2467,
      "ысын": 2468,
      "ыста": 2469,
      "Қазақ": 2470,
      "әртүрлі": 2471,
      "қаласы": 2472,
      "азаматы": 2473,
      "қызығ": 2474,
      "мағы": 2475,
      "жану": 2476,
      "бапта": 2477,
      "жатырмыз": 2478,
      "қойған": 2479,
      "көздейді": 2480,
      "тіркелген": 2481,
      "ығына": 2482,
      "сайын": 2483,
      "формат": 2484,
      "өкілеттігі": 2485,
      "заңнама": 2486,
      "бетов": 2487,
      "білдірді": 2488,
      "орталығы": 2489,
      "нұсқ": 2490,
      "Жолдауында": 2491,
      "пропорционалды": 2492,
      "Мұхтар": 2493,
      "Азат": 2494,
      "Сыр": 2495,
      "САЙ": 2496,
      "ЫҢ": 2497,
      "желі": 2498,
      "мүл": 2499,
      "этн": 2500,
      "Әл": 2501,
      "ата": 2502,
      "елорда": 2503,
      "ақыт": 2504,
      "ұрл": 2505,
      "ымкент": 2506,
      "ыстың": 2507,
      "шағым": 2508,
      "лардың": 2509,
      "Қазақстандықтар": 2510,
      "қоя": 2511,
      "аларының": 2512,
      "жылына": 2513,
      "лаған": 2514,
      "құқылы": 2515,
      "өркен": 2516,
      "жүйенің": 2517,
      "түскен": 2518,
      "Соның": 2519,
      "мәселені": 2520,
      "салып": 2521,
      "өнер": 2522,
      "негізі": 2523,
      "қызметі": 2524,
      "әкімдердің": 2525,
      "Еліміздің": 2526,
      "ғалым": 2527,
      "көздел": 2528,
      "саясаткер": 2529,
      "бабының": 2530,
      "формация": 2531,
      "асырады": 2532,
      "қолдайды": 2533,
      "ережелер": 2534,
      "төрт": 2535,
      "білдіреді": 2536,
      "зиялы": 2537,
      "жаңғырту": 2538,
      "мазмұн": 2539,
      "өсімдіктер": 2540,
      "100": 2541,
      "al": 2542,
      "ЕЛ": 2543,
      "сi": 2544,
      "ғыл": 2545,
      "аталған": 2546,
      "айын": 2547,
      "ауыстыр": 2548,
      "менің": 2549,
      "өздері": 2550,
      "кеп": 2551,
      "бағал": 2552,
      "дарда": 2553,
      "қарсыл": 2554,
      "түсті": 2555,
      "жүгіне": 2556,
      "етіні": 2557,
      "бастады": 2558,
      "жасақ": 2559,
      "санының": 2560,
      "көріп": 2561,
      "депутаттарды": 2562,
      "Мәжілістің": 2563,
      "төрағасының": 2564,
      "жауапты": 2565,
      "істейді": 2566,
      "Осыған": 2567,
      "депутатты": 2568,
      "деңгейде": 2569,
      "мәлімет": 2570,
      "кеңейту": 2571,
      "бүгінгі": 2572,
      "себепті": 2573,
      "сүйен": 2574,
      "функция": 2575,
      "жануарлар": 2576,
      "САЙЛАУ": 2577,
      "Аман": 2578,
      "Бел": 2579,
      "Жам": 2580,
      "Жиын": 2581,
      "Кон": 2582,
      "Соң": 2583,
      "кре": 2584,
      "кіш": 2585,
      "па": 2586,
      "тым": 2587,
      "Әмір": 2588,
      "алог": 2589,
      "стері": 2590,
      "аймыз": 2591,
      "кемінде": 2592,
      "бірден": 2593,
      "бірдей": 2594,
      "түй": 2595,
      "айтылды": 2596,
      "әкімдері": 2597,
      "тұрады": 2598,
      "жасады": 2599,
      "облысының": 2600,
      "санын": 2601,
      "азаматтары": 2602,
      "маңыздылығын": 2603,
      "прок": 2604,
      "қорлық": 2605,
      "шараға": 2606,
      "ағанды": 2607,
      "жүргізіліп": 2608,
      "өткізуді": 2609,
      "саясаттанушы": 2610,
      "дықтарын": 2611,
      "талқылау": 2612,
      "ортақ": 2613,
      "бөлі": 2614,
      "тармақш": 2615,
      "науқанға": 2616,
      "шақырамын": 2617,
      "Айта": 2618,
      "оқиға": 2619,
      "учаскесінде": 2620,
      "учаскесіне": 2621,
      "редакцияда": 2622,
      "мәжіліс": 2623,
      "тұжырымдам": 2624,
      "сауалн": 2625,
      "Елімізде": 2626,
      "орналасқан": 2627,
      "құжаттар": 2628,
      "ДА": 2629,
      "Одан": 2630,
      "Шымкент": 2631,
      "ЫҚ": 2632,
      "ед": 2633,
      "күшін": 2634,
      "лыл": 2635,
      "семинар": 2636,
      "таз": 2637,
      "уб": 2638,
      "ғында": 2639,
      "атыс": 2640,
      "асатын": 2641,
      "еске": 2642,
      "басшылар": 2643,
      "келесі": 2644,
      "дамуы": 2645,
      "құрылды": 2646,
      "отырмыз": 2647,
      "сенімді": 2648,
      "өткізіп": 2649,
      "азаматтарға": 2650,
      "қайрат": 2651,
      "Мәжіліске": 2652,
      "істейтін": 2653,
      "ағанда": 2654,
      "қызметкерлері": 2655,
      "өңірлік": 2656,
      "тіпті": 2657,
      "жүргізіп": 2658,
      "өткізудің": 2659,
      "тұрғындары": 2660,
      "сәйке": 2661,
      "Жоғарғы": 2662,
      "мәртебесін": 2663,
      "уәкілдің": 2664,
      "университет": 2665,
      "технология": 2666,
      "бірлескен": 2667,
      "бюллетень": 2668,
      "ОЛ": 2669,
      "бақ": 2670,
      "жап": 2671,
      "кор": 2672,
      "осын": 2673,
      "фак": 2674,
      "Қол": 2675,
      "алуы": 2676,
      "елеу": 2677,
      "тігін": 2678,
      "есс": 2679,
      "іресе": 2680,
      "өзінде": 2681,
      "ғаны": 2682,
      "ұрын": 2683,
      "ұрат": 2684,
      "сайлауалды": 2685,
      "басшылары": 2686,
      "барша": 2687,
      "қарқын": 2688,
      "түстік": 2689,
      "жүгін": 2690,
      "отан": 2691,
      "дерді": 2692,
      "талаб": 2693,
      "әкімшілік": 2694,
      "беруі": 2695,
      "лег": 2696,
      "комиссиялары": 2697,
      "адамдардың": 2698,
      "толығы": 2699,
      "қаулы": 2700,
      "бекіт": 2701,
      "сөзінде": 2702,
      "бізде": 2703,
      "аккре": 2704,
      "бақылаушы": 2705,
      "қабылдауға": 2706,
      "шығарушы": 2707,
      "парламенттік": 2708,
      "тоқт": 2709,
      "болмаса": 2710,
      "үміткерлер": 2711,
      "мыңнан": 2712,
      "жауапкершілік": 2713,
      "сектор": 2714,
      "шетел": 2715,
      "мүддесін": 2716,
      "Жергілікті": 2717,
      "басқаруға": 2718,
      "қабылдайды": 2719,
      "Қарағанды": 2720,
      "көзқарастар": 2721,
      "комиссияларының": 2722,
      "процестер": 2723,
      "салынады": 2724,
      "тұлғ": 2725,
      "трансформация": 2726,
      "Соңғы": 2727,
      "аккреди": 2728,
      "Жас": 2729,
      "Мам": 2730,
      "біт": 2731,
      "ил": 2732,
      "нет": 2733,
      "шықты": 2734,
      "ыған": 2735,
      "ңір": 2736,
      "Өңір": 2737,
      "айтады": 2738,
      "аударды": 2739,
      "асп": 2740,
      "өзіміз": 2741,
      "таныс": 2742,
      "лікті": 2743,
      "овтың": 2744,
      "құрайды": 2745,
      "үніне": 2746,
      "әкімінің": 2747,
      "қатысады": 2748,
      "ұсыну": 2749,
      "диалог": 2750,
      "2019": 2751,
      "қызу": 2752,
      "комиссиясына": 2753,
      "ымызда": 2754,
      "президенттің": 2755,
      "көпшілігі": 2756,
      "демократияның": 2757,
      "жақсар": 2758,
      "шешімін": 2759,
      "ғали": 2760,
      "кездесуде": 2761,
      "кезеңінде": 2762,
      "өткізілді": 2763,
      "лауазымды": 2764,
      "өкілеттіктерін": 2765,
      "алынып": 2766,
      "филиалы": 2767,
      "ғылыми": 2768,
      "талқыланды": 2769,
      "қадағал": 2770,
      "плом": 2771,
      "Мәжiлi": 2772,
      "бұқаралық": 2773,
      "шаруашылығы": 2774,
      "аккредит": 2775,
      "70": 2776,
      "ІН": 2777,
      "Бол": 2778,
      "ДІ": 2779,
      "ЕТ": 2780,
      "ЖС": 2781,
      "ЫС": 2782,
      "док": 2783,
      "жиын": 2784,
      "мәж": 2785,
      "миссия": 2786,
      "нова": 2787,
      "сұ": 2788,
      "сәуір": 2789,
      "ыб": 2790,
      "ғысы": 2791,
      "әй": 2792,
      "ертең": 2793,
      "ауыр": 2794,
      "асу": 2795,
      "ази": 2796,
      "тарту": 2797,
      "ғыст": 2798,
      "өздерінің": 2799,
      "қаншалық": 2800,
      "қалау": 2801,
      "шешіл": 2802,
      "әкімін": 2803,
      "берудің": 2804,
      "жасаған": 2805,
      "етуге": 2806,
      "пікірінше": 2807,
      "толықтай": 2808,
      "әділдік": 2809,
      "бұдан": 2810,
      "жалпыұлттық": 2811,
      "құрудағы": 2812,
      "кезеңде": 2813,
      "мағында": 2814,
      "теледі": 2815,
      "көшу": 2816,
      "институтының": 2817,
      "үстем": 2818,
      "арттыруға": 2819,
      "бұзушылық": 2820,
      "тағдырын": 2821,
      "фракция": 2822,
      "қозғал": 2823,
      "қатысуымен": 2824,
      "бюджеттің": 2825,
      "жариялады": 2826,
      "ұрлым": 2827,
      "),": 2828,
      "гүл": 2829,
      "истер": 2830,
      "пыс": 2831,
      "пон": 2832,
      "уа": 2833,
      "өйткені": 2834,
      "мент": 2835,
      "болар": 2836,
      "баса": 2837,
      "шығы": 2838,
      "терең": 2839,
      "тив": 2840,
      "мемлекетті": 2841,
      "отырысында": 2842,
      "жетек": 2843,
      "жұмысы": 2844,
      "шілікті": 2845,
      "алғанда": 2846,
      "негізде": 2847,
      "жұмысын": 2848,
      "шараның": 2849,
      "жүзінде": 2850,
      "әділет": 2851,
      "әкімдерінің": 2852,
      "бүр": 2853,
      "қамти": 2854,
      "жастардың": 2855,
      "Қосан": 2856,
      "учаскелері": 2857,
      "нәтижесі": 2858,
      "нәтижелер": 2859,
      "мекендер": 2860,
      "бастамасын": 2861,
      "науқаны": 2862,
      "Президентіміз": 2863,
      "асыруға": 2864,
      "босат": 2865,
      "тармағының": 2866,
      "Екіншіден": 2867,
      "жарияланған": 2868,
      "директоры": 2869,
      "қағидат": 2870,
      "жемқорлық": 2871,
      "аяқтал": 2872,
      "матери": 2873,
      "клуб": 2874,
      "Жамбыл": 2875,
      "ад": 2876,
      "жам": 2877,
      "жей": 2878,
      "мл": 2879,
      "пей": 2880,
      "теті": 2881,
      "ұғым": 2882,
      "атының": 2883,
      "тарат": 2884,
      "онлайн": 2885,
      "өзіне": 2886,
      "ұрпақ": 2887,
      "бірек": 2888,
      "түп": 2889,
      "тепе": 2890,
      "дербе": 2891,
      "тандыру": 2892,
      "партияны": 2893,
      "шылармен": 2894,
      "дауысқа": 2895,
      "суб": 2896,
      "беруді": 2897,
      "жасайды": 2898,
      "Парламентке": 2899,
      "Мәжілісте": 2900,
      "жанама": 2901,
      "жұмысына": 2902,
      "урор": 2903,
      "оларға": 2904,
      "пікірі": 2905,
      "қойды": 2906,
      "сақтал": 2907,
      "басқарудың": 2908,
      "штабының": 2909,
      "қабылданады": 2910,
      "кандидаттар": 2911,
      "ағыз": 2912,
      "ағым": 2913,
      "алдын": 2914,
      "деңгейдегі": 2915,
      "байқаушы": 2916,
      "цип": 2917,
      "норма": 2918,
      "жұртшылығы": 2919,
      "істеп": 2920,
      "басымдық": 2921,
      "көрінісі": 2922,
      "күт": 2923,
      "жеңіл": 2924,
      "сөйле": 2925,
      "комитетінің": 2926,
      "мәдениет": 2927,
      "бекітілген": 2928,
      "кездесіп": 2929,
      "қаржы": 2930,
      "қаншалықты": 2931,
      "am": 2932,
      "əне": 2933,
      "Бей": 2934,
      "Батыс": 2935,
      "Бұрын": 2936,
      "Отыр": 2937,
      "жəне": 2938,
      "күм": 2939,
      "ро": 2940,
      "тес": 2941,
      "Құқ": 2942,
      "Үш": 2943,
      "атау": 2944,
      "айық": 2945,
      "ауыз": 2946,
      "асады": 2947,
      "орай": 2948,
      "амалы": 2949,
      "болсақ": 2950,
      "циялар": 2951,
      "дарында": 2952,
      "қатын": 2953,
      "қатына": 2954,
      "көлем": 2955,
      "көбірек": 2956,
      "икер": 2957,
      "Конституцияны": 2958,
      "иннова": 2959,
      "атыны": 2960,
      "терде": 2961,
      "құрал": 2962,
      "жылға": 2963,
      "былай": 2964,
      "өкілдік": 2965,
      "ратег": 2966,
      "түсінік": 2967,
      "Референдумның": 2968,
      "оппозиция": 2969,
      "тағайында": 2970,
      "мәселелердің": 2971,
      "жастарды": 2972,
      "күшейеді": 2973,
      "отырғанын": 2974,
      "өткізіледі": 2975,
      "хабарлады": 2976,
      "бастамалар": 2977,
      "сұрақтар": 2978,
      "болашағына": 2979,
      "қазақстандықтардың": 2980,
      "қабылдайтын": 2981,
      "қауіпсіздік": 2982,
      "вице": 2983,
      "квази": 2984,
      "нығайту": 2985,
      "теме": 2986,
      "бірлестігінің": 2987,
      "оңтайлы": 2988,
      "қарқынды": 2989,
      "Құқық": 2990,
      "er": 2991,
      "ІМ": 2992,
      "Атыр": 2993,
      "Бақыт": 2994,
      "Жан": 2995,
      "Канди": 2996,
      "Тө": 2997,
      "Төр": 2998,
      "Тіпті": 2999,
      "Шын": 3000,
      "кетті": 3001,
      "лли": 3002,
      "пейді": 3003,
      "сіл": 3004,
      "Құр": 3005,
      "қайт": 3006,
      "ент": 3007,
      "ста": 3008,
      "стратег": 3009,
      "аймын": 3010,
      "ылық": 3011,
      "болуына": 3012,
      "емір": 3013,
      "басында": 3014,
      "ойым": 3015,
      "қатысы": 3016,
      "шылығын": 3017,
      "етіне": 3018,
      "қалады": 3019,
      "үшінші": 3020,
      "жылдары": 3021,
      "биз": 3022,
      "дейтін": 3023,
      "берушілер": 3024,
      "жасалып": 3025,
      "Сонда": 3026,
      "салыстыр": 3027,
      "саналады": 3028,
      "енгізіліп": 3029,
      "шешуге": 3030,
      "Референдумда": 3031,
      "бізге": 3032,
      "дейінгі": 3033,
      "тіледі": 3034,
      "қызметке": 3035,
      "сайлана": 3036,
      "сонымен": 3037,
      "тамыз": 3038,
      "түзетулерге": 3039,
      "жазасы": 3040,
      "леумет": 3041,
      "жүргізу": 3042,
      "болғанын": 3043,
      "берілді": 3044,
      "органдардың": 3045,
      "мүшелерімен": 3046,
      "жариялаған": 3047,
      "мектеп": 3048,
      "мағын": 3049,
      "2021": 3050,
      "қызметіне": 3051,
      "электр": 3052,
      "тоқталып": 3053,
      "заңнамалық": 3054,
      "өңірлердің": 3055,
      "комитеті": 3056,
      "ЫНЫҢ": 3057,
      "тақырып": 3058,
      "тақырыб": 3059,
      "Депутаттар": 3060,
      "сезін": 3061,
      "доктор": 3062,
      "күмән": 3063,
      "квазимемлекеттік": 3064,
      "Кандидат": 3065,
      "13": 3066,
      "23": 3067,
      "55": 3068,
      "ur": 3069,
      "Мә": 3070,
      "Мұн": 3071,
      "Темір": 3072,
      "баз": 3073,
      "гіміз": 3074,
      "егі": 3075,
      "кісі": 3076,
      "кра": 3077,
      "содан": 3078,
      "ус": 3079,
      "Қыз": 3080,
      "қи": 3081,
      "ілер": 3082,
      "ірг": 3083,
      "ғыру": 3084,
      "ғанда": 3085,
      "кедер": 3086,
      "сайлаған": 3087,
      "біраз": 3088,
      "басшылық": 3089,
      "қарайды": 3090,
      "қарағанда": 3091,
      "сымен": 3092,
      "кезекті": 3093,
      "жоба": 3094,
      "билігін": 3095,
      "ыруға": 3096,
      "Президенттік": 3097,
      "бойы": 3098,
      "дегеніміз": 3099,
      "диплом": 3100,
      "жүйелі": 3101,
      "түсіп": 3102,
      "мәселесін": 3103,
      "іктір": 3104,
      "өзгерт": 3105,
      "кеңесі": 3106,
      "ашады": 3107,
      "көрсетті": 3108,
      "қойылатын": 3109,
      "сондықтан": 3110,
      "жазылсын": 3111,
      "ғалиев": 3112,
      "өміріне": 3113,
      "кандидаттың": 3114,
      "Ақмол": 3115,
      "мәні": 3116,
      "болашағын": 3117,
      "лауазымына": 3118,
      "милли": 3119,
      "Төрағасының": 3120,
      "Әділет": 3121,
      "округтер": 3122,
      "ңізге": 3123,
      "тексеру": 3124,
      "танытып": 3125,
      "Сарап": 3126,
      "Жиында": 3127,
      "форматта": 3128,
      "Сыртқы": 3129,
      "Мамыр": 3130,
      "мәжбүр": 3131,
      "Атырау": 3132,
      "Ақмола": 3133,
      "14": 3134,
      "16": 3135,
      "iң": 3136,
      "ДИ": 3137,
      "ЗИ": 3138,
      "ИЯ": 3139,
      "Мақ": 3140,
      "Ом": 3141,
      "Штаб": 3142,
      "дс": 3143,
      "дин": 3144,
      "иелен": 3145,
      "мь": 3146,
      "мекен": 3147,
      "мықты": 3148,
      "нды": 3149,
      "ҒЫ": 3150,
      "ғой": 3151,
      "ғұрлым": 3152,
      "ұсына": 3153,
      "арту": 3154,
      "енетін": 3155,
      "аумағында": 3156,
      "ылу": 3157,
      "тарлы": 3158,
      "тармағы": 3159,
      "ремь": 3160,
      "бады": 3161,
      "генін": 3162,
      "денсау": 3163,
      "берсе": 3164,
      "келтір": 3165,
      "әскер": 3166,
      "көре": 3167,
      "көбей": 3168,
      "Қазақстанға": 3169,
      "құнды": 3170,
      "сынды": 3171,
      "лерде": 3172,
      "лерді": 3173,
      "басталған": 3174,
      "комм": 3175,
      "ұсынды": 3176,
      "жүйесінің": 3177,
      "етуі": 3178,
      "адамды": 3179,
      "адамға": 3180,
      "күннен": 3181,
      "\",-": 3182,
      "стігі": 3183,
      "сөзбен": 3184,
      "қайс": 3185,
      "Заңының": 3186,
      "Бізде": 3187,
      "болғаны": 3188,
      "уақытқа": 3189,
      "өзгеріске": 3190,
      "президенттікке": 3191,
      "лығымен": 3192,
      "мәнінде": 3193,
      "ашылады": 3194,
      "қалыптастыр": 3195,
      "кешенді": 3196,
      "тәртібін": 3197,
      "орталығының": 3198,
      "тармағында": 3199,
      "тәжірибе": 3200,
      "моделін": 3201,
      "айқындалады": 3202,
      "үкіметтік": 3203,
      "биылғы": 3204,
      "нәрсе": 3205,
      "толығымен": 3206,
      "сұх": 3207,
      "дсмен": 3208,
      "45": 3209,
      "67": 3210,
      "ІЛ": 3211,
      "АС": 3212,
      "Ан": 3213,
      "Агр": 3214,
      "ДЕ": 3215,
      "ЕВ": 3216,
      "Кел": 3217,
      "Оны": 3218,
      "Са": 3219,
      "Сә": 3220,
      "Семинар": 3221,
      "Тал": 3222,
      "Тағы": 3223,
      "бри": 3224,
      "мыс": 3225,
      "президенті": 3226,
      "саң": 3227,
      "уін": 3228,
      "ъек": 3229,
      "ғим": 3230,
      "Әс": 3231,
      "алуға": 3232,
      "стық": 3233,
      "айында": 3234,
      "айтарлық": 3235,
      "еткен": 3236,
      "ірі": 3237,
      "тудыр": 3238,
      "онды": 3239,
      "болмауы": 3240,
      "қарам": 3241,
      "дамыған": 3242,
      "дерек": 3243,
      "айтсақ": 3244,
      "әкімнің": 3245,
      "жатады": 3246,
      "өкілі": 3247,
      "жасқа": 3248,
      "жасалған": 3249,
      "қызы": 3250,
      "санайды": 3251,
      "керектігін": 3252,
      "енгізілмек": 3253,
      "екеніне": 3254,
      "прин": 3255,
      "Республикасындағы": 3256,
      "түсіну": 3257,
      "түсінікті": 3258,
      "себебі": 3259,
      "опол": 3260,
      "ура": 3261,
      "жүзде": 3262,
      "толықтыр": 3263,
      "Заңымызға": 3264,
      "қамт": 3265,
      "жазасына": 3266,
      "болғандықтан": 3267,
      "қатысуын": 3268,
      "көрсеткіш": 3269,
      "толықтыруларды": 3270,
      "тұтас": 3271,
      "процесін": 3272,
      "Бүгінде": 3273,
      "міндеттері": 3274,
      "моделі": 3275,
      "ескере": 3276,
      "мәлімдеді": 3277,
      "лайықты": 3278,
      "Басқа": 3279,
      "Кеңестің": 3280,
      "мүшелеріне": 3281,
      "тәртіб": 3282,
      "ғылымдарының": 3283,
      "алдарында": 3284,
      "әділеттілік": 3285,
      "Қарин": 3286,
      "қозғ": 3287,
      "айналыс": 3288,
      "дәреж": 3289,
      "дүниесі": 3290,
      "тәжірибесі": 3291,
      "будсмен": 3292,
      "Тілеу": 3293,
      "елеулі": 3294,
      "шығып": 3295,
      "Қосанов": 3296,
      "млн": 3297,
      "Үшінші": 3298,
      "ремьер": 3299,
      "айтарлықтай": 3300,
      "44": 3301,
      "52": 3302,
      "Абай": 3303,
      "Ес": 3304,
      "Мұрат": 3305,
      "Тим": 3306,
      "бор": 3307,
      "балы": 3308,
      "бiр": 3309,
      "кi": 3310,
      "нес": 3311,
      "рен": 3312,
      "әде": 3313,
      "анды": 3314,
      "дағ": 3315,
      "айр": 3316,
      "ылай": 3317,
      "тіре": 3318,
      "қабіл": 3319,
      "бермейді": 3320,
      "қарайтын": 3321,
      "дайды": 3322,
      "Конституциядағы": 3323,
      "бастаған": 3324,
      "аңызды": 3325,
      "дегенді": 3326,
      "өткізеді": 3327,
      "жүйесінде": 3328,
      "2020": 3329,
      "мүмкіндігін": 3330,
      "демия": 3331,
      "жолындағы": 3332,
      "жағынан": 3333,
      "бапқа": 3334,
      "көрсету": 3335,
      "сақт": 3336,
      "кітап": 3337,
      "жүргізуге": 3338,
      "уәде": 3339,
      "органдарының": 3340,
      "міндеті": 3341,
      "болатынын": 3342,
      "парламенттiк": 3343,
      "өткізілген": 3344,
      "өткізілетін": 3345,
      "тарихында": 3346,
      "сұраққа": 3347,
      "огикалық": 3348,
      "мәслихатының": 3349,
      "палатаның": 3350,
      "төбе": 3351,
      "жинал": 3352,
      "өкілеттіктері": 3353,
      "2016": 3354,
      "куәлігі": 3355,
      "Алматыда": 3356,
      "учаскелеріне": 3357,
      "республикаға": 3358,
      "қазақстандықтың": 3359,
      "мұны": 3360,
      "қауымдаст": 3361,
      "директорының": 3362,
      "СТАН": 3363,
      "квот": 3364,
      "ұзақ": 3365,
      "астана": 3366,
      "астананың": 3367,
      "арттырады": 3368,
      "бостандықтарын": 3369,
      "Азамат": 3370,
      "елеген": 3371,
      "қайтарып": 3372,
      "Меніңше": 3373,
      "Ассамблеясының": 3374,
      "есептейді": 3375,
      "ерекшелік": 3376,
      "Еуроп": 3377,
      "тымақ": 3378,
      "прокурор": 3379,
      "Қолдан": 3380,
      "түпкілікті": 3381,
      "Тимур": 3382,
      "Бақыл": 3383,
      "ДП": 3384,
      "ЕҚЫ": 3385,
      "Укра": 3386,
      "жек": 3387,
      "мас": 3388,
      "оз": 3389,
      "ск": 3390,
      "сел": 3391,
      "сайт": 3392,
      "цин": 3393,
      "Қаңтар": 3394,
      "Ұлы": 3395,
      "ендігі": 3396,
      "дету": 3397,
      "діс": 3398,
      "болсын": 3399,
      "таев": 3400,
      "қатер": 3401,
      "Конституциядан": 3402,
      "дама": 3403,
      "қанды": 3404,
      "қанатының": 3405,
      "сый": 3406,
      "қосым": 3407,
      "жылдар": 3408,
      "жылдық": 3409,
      "қолында": 3410,
      "түсір": 3411,
      "санау": 3412,
      "жаңадан": 3413,
      "Парламентте": 3414,
      "күнде": 3415,
      "қаул": 3416,
      "мемлекетте": 3417,
      "әулет": 3418,
      "жақында": 3419,
      "жағдайды": 3420,
      "істік": 3421,
      "істеу": 3422,
      "шешімі": 3423,
      "қойып": 3424,
      "қойылған": 3425,
      "Заңның": 3426,
      "тіркел": 3427,
      "теңге": 3428,
      "Сайлауға": 3429,
      "дастар": 3430,
      "хатшы": 3431,
      "кезеңі": 3432,
      "орнат": 3433,
      "жаңғыру": 3434,
      "жауапкершілікті": 3435,
      "секілді": 3436,
      "Мұның": 3437,
      "институттар": 3438,
      "2004": 3439,
      "халқына": 3440,
      "келісімімен": 3441,
      "бекіту": 3442,
      "әзірлеу": 3443,
      "нұсқада": 3444,
      "Биыл": 3445,
      "сапары": 3446,
      "айқындайтын": 3447,
      "кандидатурасын": 3448,
      "Біріншіден": 3449,
      "кезектен": 3450,
      "монопол": 3451,
      "Барлық": 3452,
      "ортаға": 3453,
      "үдерістер": 3454,
      "Негізгі": 3455,
      "тармақшасы": 3456,
      "лылары": 3457,
      "сәйкестігін": 3458,
      "Болат": 3459,
      "пысық": 3460,
      "жұртшылығымен": 3461,
      "әскери": 3462,
      "Бақылау": 3463,
      "ЕҚЫҰ": 3464,
      "монополия": 3465,
      "22": 3466,
      "29": 3467,
      "ІР": 3468,
      "ЕК": 3469,
      "Жұрт": 3470,
      "ЫЛ": 3471,
      "ЫР": 3472,
      "адал": 3473,
      "агр": 3474,
      "бан": 3475,
      "дос": 3476,
      "жа": 3477,
      "мең": 3478,
      "месе": 3479,
      "маса": 3480,
      "нағыз": 3481,
      "ран": 3482,
      "сү": 3483,
      "сүр": 3484,
      "соған": 3485,
      "төл": 3486,
      "тама": 3487,
      "удің": 3488,
      "шының": 3489,
      "Өмір": 3490,
      "арлық": 3491,
      "енеді": 3492,
      "ант": 3493,
      "дас": 3494,
      "даса": 3495,
      "стің": 3496,
      "етр": 3497,
      "тіз": 3498,
      "ескі": 3499,
      "аңғыст": 3500,
      "ерімен": 3501,
      "қашан": 3502,
      "сайлауында": 3503,
      "сайлаудан": 3504,
      "бірде": 3505,
      "барды": 3506,
      "тығыз": 3507,
      "отбас": 3508,
      "көлік": 3509,
      "шылдық": 3510,
      "әріп": 3511,
      "заңсыз": 3512,
      "сынан": 3513,
      "кімнің": 3514,
      "таным": 3515,
      "талдау": 3516,
      "құқығына": 3517,
      "өкілдерінің": 3518,
      "гілі": 3519,
      "көрген": 3520,
      "азаматтарының": 3521,
      "ықтыр": 3522,
      "осыған": 3523,
      "қорғал": 3524,
      "сөзінше": 3525,
      "үлес": 3526,
      "үлесін": 3527,
      "қызметте": 3528,
      "Сенатының": 3529,
      "сайланатын": 3530,
      "жазылған": 3531,
      "жүргізіл": 3532,
      "қажеті": 3533,
      "бағыттағы": 3534,
      "талқылауға": 3535,
      "қорғауға": 3536,
      "ештең": 3537,
      "деңгейі": 3538,
      "сауалдар": 3539,
      "тармақтары": 3540,
      "сұрақтарға": 3541,
      "Мұқан": 3542,
      "көтеру": 3543,
      "алынған": 3544,
      "қызметінің": 3545,
      "2012": 3546,
      "Ұлт": 3547,
      "білдіріп": 3548,
      "соз": 3549,
      "мақсаттар": 3550,
      "Әділетті": 3551,
      "ұйымдастырылған": 3552,
      "бәрін": 3553,
      "пропорционалдық": 3554,
      "Облыстық": 3555,
      "қарауына": 3556,
      "бюджетін": 3557,
      "қыркүй": 3558,
      "жойылады": 3559,
      "кезекте": 3560,
      "Ассамблеясы": 3561,
      "тағайындалған": 3562,
      "меншігі": 3563,
      "қысқарту": 3564,
      "жедел": 3565,
      "шағымдан": 3566,
      "қайраткерлері": 3567,
      "корпу": 3568,
      "шетелдік": 3569,
      "аккредиттел": 3570,
      "ЖСДП": 3571,
      "қатынастар": 3572,
      "іргет": 3573,
      "принцип": 3574,
      "Тілеуберді": 3575,
      "аңғыстау": 3576,
      "Nur": 3577,
      "Otan": 3578,
      "Бал": 3579,
      "Жет": 3580,
      "Жаң": 3581,
      "Маңғыстау": 3582,
      "Пав": 3583,
      "Содан": 3584,
      "Тұр": 3585,
      "Учас": 3586,
      "зал": 3587,
      "ир": 3588,
      "иция": 3589,
      "кол": 3590,
      "мұр": 3591,
      "мит": 3592,
      "пін": 3593,
      "Қай": 3594,
      "ҚАЗ": 3595,
      "қасында": 3596,
      "қим": 3597,
      "ынтымақ": 3598,
      "деуге": 3599,
      "атиялық": 3600,
      "іру": 3601,
      "орны": 3602,
      "неғұрлым": 3603,
      "боламыз": 3604,
      "болмаған": 3605,
      "сайлауын": 3606,
      "біреу": 3607,
      "қарым": 3608,
      "апта": 3609,
      "Конституциямыз": 3610,
      "қалаған": 3611,
      "заңына": 3612,
      "ағат": 3613,
      "дерде": 3614,
      "деріне": 3615,
      "өзгерісті": 3616,
      "аларына": 3617,
      "теріне": 3618,
      "асымен": 3619,
      "басталады": 3620,
      "бастауы": 3621,
      "лест": 3622,
      "Алма": 3623,
      "Алуа": 3624,
      "салды": 3625,
      "салтан": 3626,
      "білу": 3627,
      "енгізілуі": 3628,
      "өндір": 3629,
      "ыстардың": 3630,
      "жолында": 3631,
      "негіздел": 3632,
      "жалғыз": 3633,
      "беков": 3634,
      "демократияға": 3635,
      "қызметкерлер": 3636,
      "өңгел": 3637,
      "сайлануы": 3638,
      "бақылауды": 3639,
      "белсенділігі": 3640,
      "жазу": 3641,
      "механ": 3642,
      "елігі": 3643,
      "наурыз": 3644,
      "өмірі": 3645,
      "беріліп": 3646,
      "тұрғындардың": 3647,
      "алдына": 3648,
      "ақпараттандыру": 3649,
      "парламентке": 3650,
      "атқаруға": 3651,
      "бабы": 3652,
      "министрлігі": 3653,
      "модер": 3654,
      "бәсекелестiк": 3655,
      "мыңға": 3656,
      "сенімін": 3657,
      "ықпалды": 3658,
      "түсіндіріп": 3659,
      "мүдделі": 3660,
      "кәсі": 3661,
      "баламалы": 3662,
      "заңдылық": 3663,
      "кәсіпорын": 3664,
      "қалыптастыруды": 3665,
      "мажоритарлы": 3666,
      "сенатор": 3667,
      "әлемдік": 3668,
      "қауіпсіз": 3669,
      "Азаматтардың": 3670,
      "эксп": 3671,
      "желілер": 3672,
      "күрделі": 3673,
      "сiне": 3674,
      "бөлісті": 3675,
      "сілтеме": 3676,
      "стратегиялық": 3677,
      "ойымша": 3678,
      "электронды": 3679,
      "докторы": 3680,
      "құндылық": 3681,
      "Қолданыстағы": 3682,
      "қыркүйек": 3683,
      "өңгелек": 3684,
      "47": 3685,
      "stan": 3686,
      "Бер": 3687,
      "Бек": 3688,
      "ГІ": 3689,
      "Ке": 3690,
      "Ком": 3691,
      "жайл": 3692,
      "ло": 3693,
      "мə": 3694,
      "мой": 3695,
      "осаяси": 3696,
      "рас": 3697,
      "соқ": 3698,
      "тi": 3699,
      "ут": 3700,
      "шо": 3701,
      "эл": 3702,
      "яр": 3703,
      "Қау": 3704,
      "Қор": 3705,
      "алым": 3706,
      "алдың": 3707,
      "дыбал": 3708,
      "десек": 3709,
      "атв": 3710,
      "ықти": 3711,
      "ауыт": 3712,
      "ылуын": 3713,
      "ысынан": 3714,
      "ондай": 3715,
      "баға": 3716,
      "барш": 3717,
      "барысы": 3718,
      "дайындау": 3719,
      "апи": 3720,
      "келсе": 3721,
      "ісбаев": 3722,
      "жүк": 3723,
      "интер": 3724,
      "заңдардың": 3725,
      "шев": 3726,
      "дікке": 3727,
      "қоғамдағы": 3728,
      "Президентке": 3729,
      "жеткілікті": 3730,
      "ұсынылатын": 3731,
      "Алтын": 3732,
      "қабылдап": 3733,
      "қабылдады": 3734,
      "ықтыру": 3735,
      "өзгеруі": 3736,
      "кеңестің": 3737,
      "оппози": 3738,
      "тілді": 3739,
      "пікірлерін": 3740,
      "таңғы": 3741,
      "партияларға": 3742,
      "Бізге": 3743,
      "Елбасы": 3744,
      "басқарудан": 3745,
      "хабардар": 3746,
      "органы": 3747,
      "қабылданды": 3748,
      "кандидатты": 3749,
      "кандидаттардың": 3750,
      "кандидаттарды": 3751,
      "Ақтау": 3752,
      "ешек": 3753,
      "астамы": 3754,
      "процес": 3755,
      "АҚСТАН": 3756,
      "тармақша": 3757,
      "тарихындағы": 3758,
      "шектел": 3759,
      "қадамдар": 3760,
      "Өзгері": 3761,
      "серв": 3762,
      "ықпалы": 3763,
      "кешен": 3764,
      "толыққанды": 3765,
      "Жолдыбал": 3766,
      "Кеңесінің": 3767,
      "мерзімі": 3768,
      "сырт": 3769,
      "Мәслих": 3770,
      "жеңіске": 3771,
      "тартып": 3772,
      "шектеулі": 3773,
      "көзқарас": 3774,
      "нысаны": 3775,
      "анықтау": 3776,
      "жобаларын": 3777,
      "шаруа": 3778,
      "режим": 3779,
      "ОВА": 3780,
      "аху": 3781,
      "бастамасымен": 3782,
      "айырма": 3783,
      "журналист": 3784,
      "журналистер": 3785,
      "түсуге": 3786,
      "тұрғыдан": 3787,
      "идея": 3788,
      "қызығушылық": 3789,
      "Азаттық": 3790,
      "желіде": 3791,
      "Қазақстандықтардың": 3792,
      "Әміржан": 3793,
      "қамтитын": 3794,
      "тетігі": 3795,
      "Қызыл": 3796,
      "миллион": 3797,
      "жүздесті": 3798,
      "жекелеген": 3799,
      "ештеңе": 3800,
      "ҚАЗАҚСТАН": 3801,
      "61": 3802,
      "80": 3803,
      "KZ": 3804,
      "le": 3805,
      "Асан": 3806,
      "АДЫ": 3807,
      "БАЙ": 3808,
      "Дәулет": 3809,
      "Екі": 3810,
      "Естері": 3811,
      "МД": 3812,
      "Мин": 3813,
      "Тар": 3814,
      "Тек": 3815,
      "ТОР": 3816,
      "ТМД": 3817,
      "газ": 3818,
      "жарт": 3819,
      "иетті": 3820,
      "көзі": 3821,
      "кiн": 3822,
      "міне": 3823,
      "майтын": 3824,
      "нақтыл": 3825,
      "піз": 3826,
      "раст": 3827,
      "сiн": 3828,
      "тті": 3829,
      "хмет": 3830,
      "ғалы": 3831,
      "Қан": 3832,
      "ұш": 3833,
      "ӨТ": 3834,
      "Өл": 3835,
      "аль": 3836,
      "айып": 3837,
      "ыққа": 3838,
      "ықша": 3839,
      "ылуда": 3840,
      "ілгер": 3841,
      "есіз": 3842,
      "туғыз": 3843,
      "гіп": 3844,
      "барған": 3845,
      "келі": 3846,
      "көкей": 3847,
      "көмек": 3848,
      "икация": 3849,
      "тестер": 3850,
      "қанша": 3851,
      "қалдыр": 3852,
      "партияда": 3853,
      "айтылып": 3854,
      "жоғарғы": 3855,
      "енгізуге": 3856,
      "руге": 3857,
      "жасыр": 3858,
      "қабылдам": 3859,
      "саласында": 3860,
      "адамдарды": 3861,
      "қазан": 3862,
      "енгізілді": 3863,
      "жерге": 3864,
      "өлш": 3865,
      "кеңе": 3866,
      "төрағасын": 3867,
      "әлде": 3868,
      "Сенатқа": 3869,
      "қамту": 3870,
      "өңірдегі": 3871,
      "меди": 3872,
      "жүргізді": 3873,
      "кейінгі": 3874,
      "қатысушылардың": 3875,
      "есептеледі": 3876,
      "көрсеткен": 3877,
      "берілмейді": 3878,
      "бағытта": 3879,
      "хаттам": 3880,
      "Халықаралық": 3881,
      "бәсекеге": 3882,
      "дамуының": 3883,
      "қолданылады": 3884,
      "Ақтөбе": 3885,
      "нәтижелері": 3886,
      "сұрақтарына": 3887,
      "министрлігінің": 3888,
      "бәсекелестікті": 3889,
      "жауапкершілігі": 3890,
      "ескеріл": 3891,
      "Әбді": 3892,
      "куәлігін": 3893,
      "әзірлен": 3894,
      "өңірлерге": 3895,
      "тағдыры": 3896,
      "редакциясында": 3897,
      "тартты": 3898,
      "университетінің": 3899,
      "Әрбір": 3900,
      "Жарлық": 3901,
      "фрлық": 3902,
      "қалыптасқан": 3903,
      "баяндады": 3904,
      "қаражат": 3905,
      "пания": 3906,
      "гiз": 3907,
      "сәтті": 3908,
      "шақыру": 3909,
      "индексі": 3910,
      "әңгіме": 3911,
      "тұрақтылықты": 3912,
      "Жиынға": 3913,
      "сауалнама": 3914,
      "таза": 3915,
      "фактор": 3916,
      "көзқарастары": 3917,
      "Мәжiлiсiне": 3918,
      "пондент": 3919,
      "қайтал": 3920,
      "ғимарат": 3921,
      "кітапхан": 3922,
      "Мұқанова": 3923,
      "қимыл": 3924,
      "ықтимал": 3925,
      "оппозициялық": 3926,
      "Министр": 3927,
      ",-": 3928,
      "28": 3929,
      "43": 3930,
      "83": 3931,
      "91": 3932,
      "es": 3933,
      "sh": 3934,
      "АВ": 3935,
      "Аб": 3936,
      "АҢ": 3937,
      "Еш": 3938,
      "Зерт": 3939,
      "Кәрі": 3940,
      "Марат": 3941,
      "Нау": 3942,
      "Пр": 3943,
      "ХА": 3944,
      "бден": 3945,
      "жері": 3946,
      "за": 3947,
      "ий": 3948,
      "итор": 3949,
      "ль": 3950,
      "мысалы": 3951,
      "нені": 3952,
      "пи": 3953,
      "тей": 3954,
      "қысы": 3955,
      "Әлем": 3956,
      "әдени": 3957,
      "әбден": 3958,
      "арқасында": 3959,
      "алты": 3960,
      "алғыс": 3961,
      "даг": 3962,
      "ақсақ": 3963,
      "тарда": 3964,
      "орд": 3965,
      "амалар": 3966,
      "ындап": 3967,
      "болуын": 3968,
      "қап": 3969,
      "сайлаушы": 3970,
      "бірін": 3971,
      "біртұтас": 3972,
      "береміз": 3973,
      "келер": 3974,
      "ісін": 3975,
      "референдумге": 3976,
      "едім": 3977,
      "Қазақстандық": 3978,
      "қалайды": 3979,
      "қаласындағы": 3980,
      "омәдени": 3981,
      "кімге": 3982,
      "імізге": 3983,
      "қоғамды": 3984,
      "қоғамға": 3985,
      "компания": 3986,
      "сенемін": 3987,
      "жүйеге": 3988,
      "саласы": 3989,
      "реформалау": 3990,
      "ланған": 3991,
      "күннің": 3992,
      "негізін": 3993,
      "жұмысшылар": 3994,
      "елімізді": 3995,
      "сөзін": 3996,
      "баевтың": 3997,
      "қайыр": 3998,
      "тілге": 3999,
      "тілген": 4000,
      "акт": 4001,
      "пайым": 4002,
      "байланыс": 4003,
      "қойылып": 4004,
      "бүгінде": 4005,
      "есте": 4006,
      "бақылауға": 4007,
      "бақылаушылардың": 4008,
      "түзетулердің": 4009,
      "келгенде": 4010,
      "уақытша": 4011,
      "өміріндегі": 4012,
      "көрсетіп": 4013,
      "мәселелерін": 4014,
      "саясатқа": 4015,
      "тауып": 4016,
      "өзгертуге": 4017,
      "жүйеде": 4018,
      "тізіміне": 4019,
      "107": 4020,
      "Айгүл": 4021,
      "Аудан": 4022,
      "Асхат": 4023,
      "2017": 4024,
      "куәлік": 4025,
      "білдірген": 4026,
      "үстіне": 4027,
      "өтуі": 4028,
      "шектеулер": 4029,
      "дәлел": 4030,
      "құрамына": 4031,
      "үкімет": 4032,
      "сапалы": 4033,
      "ұжымымен": 4034,
      "туыстары": 4035,
      "туыстарына": 4036,
      "Есептен": 4037,
      "жобасын": 4038,
      "тұрғыда": 4039,
      "қолдайтынын": 4040,
      "қызығу": 4041,
      "мүлде": 4042,
      "aly": 4043,
      "едәуір": 4044,
      "жетекшісі": 4045,
      "бизнес": 4046,
      "шоғыр": 4047,
      "сервис": 4048,
      "Кәрібек": 4049,
      "31": 4050,
      "46": 4051,
      "53": 4052,
      "65": 4053,
      "75": 4054,
      "ar": 4055,
      "iт": 4056,
      "ni": 4057,
      "Дос": 4058,
      "Жә": 4059,
      "МӘ": 4060,
      "Міне": 4061,
      "НЕ": 4062,
      "ПУ": 4063,
      "ПАР": 4064,
      "РА": 4065,
      "Тәж": 4066,
      "Уни": 4067,
      "быр": 4068,
      "гия": 4069,
      "дөңгелек": 4070,
      "ести": 4071,
      "жаб": 4072,
      "лап": 4073,
      "ҚО": 4074,
      "қас": 4075,
      "ҰР": 4076,
      "ұй": 4077,
      "Әлеуметтік": 4078,
      "аралы": 4079,
      "ерен": 4080,
      "андыру": 4081,
      "алтын": 4082,
      "стары": 4083,
      "десе": 4084,
      "дігінің": 4085,
      "дігіне": 4086,
      "туған": 4087,
      "табады": 4088,
      "бірте": 4089,
      "бірлік": 4090,
      "індей": 4091,
      "сая": 4092,
      "басындағы": 4093,
      "бермейтін": 4094,
      "ларға": 4095,
      "көше": 4096,
      "тег": 4097,
      "Конституциясының": 4098,
      "құп": 4099,
      "лерінің": 4100,
      "таныстыр": 4101,
      "партиядан": 4102,
      "лігіне": 4103,
      "талды": 4104,
      "шыларға": 4105,
      "өзгерістерден": 4106,
      "астыр": 4107,
      "үмiт": 4108,
      "әкімдіктер": 4109,
      "өкілдерін": 4110,
      "дегенде": 4111,
      "лед": 4112,
      "қызықтыр": 4113,
      "саласының": 4114,
      "білікті": 4115,
      "білуі": 4116,
      "шілде": 4117,
      "жердегі": 4118,
      "шешті": 4119,
      "негізінен": 4120,
      "мемлекеттер": 4121,
      "ауылдың": 4122,
      "түрі": 4123,
      "тілін": 4124,
      "күші": 4125,
      "уақы": 4126,
      "маусымға": 4127,
      "жазасын": 4128,
      "көздері": 4129,
      "алмады": 4130,
      "кездесуге": 4131,
      "органдары": 4132,
      "қабылдануы": 4133,
      "тұтаст": 4134,
      "дықтарға": 4135,
      "терімен": 4136,
      "тырыс": 4137,
      "қорғайтын": 4138,
      "респондент": 4139,
      "соңына": 4140,
      "талаптарына": 4141,
      "мекем": 4142,
      "консу": 4143,
      "процесі": 4144,
      "байқаушылардың": 4145,
      "бабында": 4146,
      "үміттен": 4147,
      "спикер": 4148,
      "ескеру": 4149,
      "мамырдан": 4150,
      "ьян": 4151,
      "2011": 4152,
      "аймақтық": 4153,
      "көрініс": 4154,
      "АЛЫҚ": 4155,
      "анықтап": 4156,
      "кәсіпкерлер": 4157,
      "әлемде": 4158,
      "учаскесін": 4159,
      "жобалары": 4160,
      "дамытуға": 4161,
      "адамдарға": 4162,
      "ережелері": 4163,
      "құрылуы": 4164,
      "Партиялық": 4165,
      "уль": 4166,
      "ұқс": 4167,
      "Ассамблея": 4168,
      "ресурстарды": 4169,
      "техникалық": 4170,
      "пайдалану": 4171,
      "Облыс": 4172,
      "қағида": 4173,
      "қорытындысы": 4174,
      "учаскеде": 4175,
      "нығайтуға": 4176,
      "ОРК": 4177,
      "монитор": 4178,
      "тапсырм": 4179,
      "әкімдігінің": 4180,
      "Кейін": 4181,
      "нараз": 4182,
      "этномәдени": 4183,
      "оқиғаға": 4184,
      "отандастар": 4185,
      "бекітетін": 4186,
      "тоқтат": 4187,
      "ауыздан": 4188,
      "Төле": 4189,
      "кедергі": 4190,
      "Әсіресе": 4191,
      "Үшіншіден": 4192,
      "қосымша": 4193,
      "меңгер": 4194,
      "механизм": 4195,
      "Естеріңізге": 4196,
      "Өлім": 4197,
      "АВТОР": 4198,
      "Университ": 4199,
      "400": 4200,
      "59": 4201,
      "ak": 4202,
      "in": 4203,
      "um": 4204,
      "Астан": 4205,
      "АЕВ": 4206,
      "Был": 4207,
      "Бәр": 4208,
      "Берік": 4209,
      "БОЛ": 4210,
      "До": 4211,
      "ЕСІ": 4212,
      "ЖАН": 4213,
      "ИН": 4214,
      "Иә": 4215,
      "ТҮ": 4216,
      "ЫМ": 4217,
      "едер": 4218,
      "еуге": 4219,
      "еуі": 4220,
      "зер": 4221,
      "иелі": 4222,
      "мар": 4223,
      "песе": 4224,
      "пейтін": 4225,
      "тәуел": 4226,
      "Құ": 4227,
      "Қал": 4228,
      "стүр": 4229,
      "дес": 4230,
      "деше": 4231,
      "ете": 4232,
      "ылар": 4233,
      "ылмаған": 4234,
      "іздеу": 4235,
      "есi": 4236,
      "менов": 4237,
      "тарында": 4238,
      "өзіңіз": 4239,
      "ғанын": 4240,
      "дарына": 4241,
      "басып": 4242,
      "барлығын": 4243,
      "келмейді": 4244,
      "әсіресе": 4245,
      "даусымен": 4246,
      "референдумнан": 4247,
      "түгел": 4248,
      "едік": 4249,
      "көн": 4250,
      "ика": 4251,
      "қалар": 4252,
      "керлік": 4253,
      "құрып": 4254,
      "билігі": 4255,
      "тура": 4256,
      "бастал": 4257,
      "басталды": 4258,
      "ұмыт": 4259,
      "ысымен": 4260,
      "ұсынылды": 4261,
      "жүйес": 4262,
      "елерді": 4263,
      "маңыздылығы": 4264,
      "өзгертіп": 4265,
      "төрағаларын": 4266,
      "шығарып": 4267,
      "шығарма": 4268,
      "Мәжілісі": 4269,
      "Мәжілісіне": 4270,
      "жоққа": 4271,
      "байлық": 4272,
      "жарық": 4273,
      "күшіне": 4274,
      "күштер": 4275,
      "ауданы": 4276,
      "ауданның": 4277,
      "ака": 4278,
      "Нұржан": 4279,
      "соттардың": 4280,
      "белсене": 4281,
      "партияларды": 4282,
      "соны": 4283,
      "енгізуді": 4284,
      "өңірдің": 4285,
      "меуі": 4286,
      "истік": 4287,
      "теңгер": 4288,
      "тұрғындарының": 4289,
      "толықтырулардың": 4290,
      "қабылданатын": 4291,
      "саясаттану": 4292,
      "тұста": 4293,
      "құрудың": 4294,
      "кезеңімен": 4295,
      "талаптар": 4296,
      "деңгейінде": 4297,
      "Жоба": 4298,
      "айналды": 4299,
      "екеуі": 4300,
      "шақырып": 4301,
      "палаталы": 4302,
      "беретінін": 4303,
      "бетбұр": 4304,
      "мүдделерін": 4305,
      "көтеріл": 4306,
      "ашылған": 4307,
      "Асқар": 4308,
      "мамырда": 4309,
      "педаг": 4310,
      "жасауы": 4311,
      "еліктен": 4312,
      "қалыптастыруға": 4313,
      "тағдырына": 4314,
      "Жарлығымен": 4315,
      "көңілі": 4316,
      "ЕРІ": 4317,
      "көпшіліктің": 4318,
      "сапасын": 4319,
      "шығу": 4320,
      "айналуға": 4321,
      "тәртіппен": 4322,
      "проблемаларды": 4323,
      "шығады": 4324,
      "бірлесіп": 4325,
      "мамандар": 4326,
      "бірлестігі": 4327,
      "жалғастыру": 4328,
      "тұрақтылық": 4329,
      "көзделген": 4330,
      "ауыстырылсын": 4331,
      "кепіл": 4332,
      "қарсылық": 4333,
      "түйін": 4334,
      "басшыларының": 4335,
      "секторда": 4336,
      "қалаулылары": 4337,
      "тивті": 4338,
      "Бақытжан": 4339,
      "кісідей": 4340,
      "Мақсат": 4341,
      "тәртібіне": 4342,
      "айрықша": 4343,
      "сақтауға": 4344,
      "Тұрғын": 4345,
      "коллед": 4346,
      "модератор": 4347,
      "желілерде": 4348,
      "алдыңғы": 4349,
      "Жолдыбалина": 4350,
      "Қызылорда": 4351,
      "ілгеріл": 4352,
      "Наурыз": 4353,
      "уақыты": 4354,
      "мониторинг": 4355,
      "тәуелді": 4356,
      "..": 4357,
      "05": 4358,
      "].": 4359,
      "Аталған": 4360,
      "Ван": 4361,
      "Дан": 4362,
      "Дау": 4363,
      "ДАУ": 4364,
      "ЕМ": 4365,
      "ЕО": 4366,
      "КЕ": 4367,
      "Кем": 4368,
      "Латв": 4369,
      "СА": 4370,
      "Су": 4371,
      "СЗИ": 4372,
      "ХХ": 4373,
      "автор": 4374,
      "бесе": 4375,
      "гөр": 4376,
      "дәрі": 4377,
      "ип": 4378,
      "каб": 4379,
      "рақ": 4380,
      "сінен": 4381,
      "тақ": 4382,
      "ткен": 4383,
      "урат": 4384,
      "фесс": 4385,
      "шұ": 4386,
      "шал": 4387,
      "ҚХА": 4388,
      "ҚСЗИ": 4389,
      "ҰЛ": 4390,
      "Ұсын": 4391,
      "Әу": 4392,
      "арасынан": 4393,
      "даяр": 4394,
      "ауи": 4395,
      "ыла": 4396,
      "ғаз": 4397,
      "еріп": 4398,
      "негiз": 4399,
      "болжам": 4400,
      "геосаяси": 4401,
      "сайлап": 4402,
      "бірлігі": 4403,
      "біршама": 4404,
      "дарынан": 4405,
      "басын": 4406,
      "барын": 4407,
      "қарауға": 4408,
      "келешек": 4409,
      "дауыстар": 4410,
      "еймін": 4411,
      "көбі": 4412,
      "саясатын": 4413,
      "саясаты": 4414,
      "етінше": 4415,
      "қалыс": 4416,
      "іпсіздік": 4417,
      "инв": 4418,
      "заңгер": 4419,
      "лерге": 4420,
      "айтқандай": 4421,
      "талас": 4422,
      "талқы": 4423,
      "құралдарында": 4424,
      "отырысы": 4425,
      "ғамбетов": 4426,
      "дауысы": 4427,
      "бастайды": 4428,
      "басталып": 4429,
      "кініш": 4430,
      "жеті": 4431,
      "жетістік": 4432,
      "жатса": 4433,
      "қатысатын": 4434,
      "өткізген": 4435,
      "Алға": 4436,
      "белік": 4437,
      "адамнан": 4438,
      "мағамбетов": 4439,
      "жолғы": 4440,
      "ауылы": 4441,
      "баева": 4442,
      "демократияны": 4443,
      "есінші": 4444,
      "қызметшілер": 4445,
      "азаматқа": 4446,
      "Орын": 4447,
      "белсенділ": 4448,
      "шешімді": 4449,
      "уақтыл": 4450,
      "Сенатта": 4451,
      "басқаруды": 4452,
      "жаза": 4453,
      "үрдіс": 4454,
      "толықтыруларға": 4455,
      "тапқан": 4456,
      "үйлест": 4457,
      "либер": 4458,
      "професс": 4459,
      "ақпаратты": 4460,
      "парламенттің": 4461,
      "өткізіліп": 4462,
      "Ендеше": 4463,
      "атқарады": 4464,
      "атқарылған": 4465,
      "науқанның": 4466,
      "ханен": 4467,
      "бейбіт": 4468,
      "жинақ": 4469,
      "асырылады": 4470,
      "емізді": 4471,
      "Мұны": 4472,
      "Солтүстік": 4473,
      "қажеттілік": 4474,
      "қажеттігін": 4475,
      "жұртшылық": 4476,
      "қолдаймыз": 4477,
      "алынды": 4478,
      "ететінін": 4479,
      "келісімін": 4480,
      "басқарм": 4481,
      "кіріс": 4482,
      "учаскелерінде": 4483,
      "елдерде": 4484,
      "мұның": 4485,
      "алаңы": 4486,
      "уникация": 4487,
      "құрамында": 4488,
      "бағдарламасын": 4489,
      "талқыланып": 4490,
      "қалыптасу": 4491,
      "Көп": 4492,
      "айқындайды": 4493,
      "судьялар": 4494,
      "судьялары": 4495,
      "арттырып": 4496,
      "бекітіледі": 4497,
      "үлгісі": 4498,
      "Байқау": 4499,
      "қосуға": 4500,
      "туындап": 4501,
      "қылмыстық": 4502,
      "меншігінде": 4503,
      "рәсімі": 4504,
      "толғандыр": 4505,
      "тобы": 4506,
      "жоспарланып": 4507,
      "өркениетті": 4508,
      "Аманат": 4509,
      "талабына": 4510,
      "қадағалау": 4511,
      "сәуірде": 4512,
      "клубының": 4513,
      "инновациялар": 4514,
      "Агро": 4515,
      "қабілетті": 4516,
      "ынтымақтаст": 4517,
      "Комиссия": 4518,
      "Қауіпсіздік": 4519,
      "интернет": 4520,
      "leg": 4521,
      "ордалық": 4522,
      "үмiткер": 4523,
      "Ванханен": 4524,
      "кабин": 4525,
      "уақтылы": 4526,
      "профессор": 4527,
      "42": 4528,
      "500": 4529,
      "VI": 4530,
      "eleg": 4531,
      "mat": 4532,
      "ram": 4533,
      "КО": 4534,
      "КІМ": 4535,
      "Премьер": 4536,
      "СР": 4537,
      "Сөз": 4538,
      "Сары": 4539,
      "Хат": 4540,
      "Ци": 4541,
      "аэ": 4542,
      "зей": 4543,
      "лауға": 4544,
      "оф": 4545,
      "пак": 4546,
      "паған": 4547,
      "пеу": 4548,
      "рендум": 4549,
      "сес": 4550,
      "сіне": 4551,
      "серік": 4552,
      "сінше": 4553,
      "тин": 4554,
      "төте": 4555,
      "цина": 4556,
      "ъез": 4557,
      "қым": 4558,
      "ұт": 4559,
      "Әйт": 4560,
      "әлеу": 4561,
      "әлеумет": 4562,
      "ардың": 4563,
      "ани": 4564,
      "іншісі": 4565,
      "етіл": 4566,
      "ақша": 4567,
      "ият": 4568,
      "ектор": 4569,
      "азая": 4570,
      "імі": 4571,
      "ырой": 4572,
      "ындауға": 4573,
      "болат": 4574,
      "сайлайды": 4575,
      "гісі": 4576,
      "бағын": 4577,
      "сабақ": 4578,
      "қаржыл": 4579,
      "ыстыру": 4580,
      "ойларын": 4581,
      "қатаң": 4582,
      "теуге": 4583,
      "шылығының": 4584,
      "Конституциясын": 4585,
      "дерінен": 4586,
      "дербес": 4587,
      "шең": 4588,
      "талай": 4589,
      "овой": 4590,
      "кенов": 4591,
      "құрылатын": 4592,
      "құрамын": 4593,
      "жылда": 4594,
      "тиек": 4595,
      "қолымызда": 4596,
      "отырады": 4597,
      "мәселеге": 4598,
      "білемін": 4599,
      "комиссияның": 4600,
      "мүшесін": 4601,
      "гілер": 4602,
      "биліктен": 4603,
      "реттен": 4604,
      "бедел": 4605,
      "оқып": 4606,
      "мемлекетіміз": 4607,
      "осыдан": 4608,
      "шығарған": 4609,
      "ұйымдарының": 4610,
      "егей": 4611,
      "істей": 4612,
      "ашу": 4613,
      "ғарыш": 4614,
      "естік": 4615,
      "сайланды": 4616,
      "Елдің": 4617,
      "сақтап": 4618,
      "қамтуға": 4619,
      "белсендісі": 4620,
      "реформаларға": 4621,
      "өмірінде": 4622,
      "Ерман": 4623,
      "жастарға": 4624,
      "құруды": 4625,
      "Сайлаудың": 4626,
      "Сайлаушылар": 4627,
      "деңгейін": 4628,
      "1998": 4629,
      "келісу": 4630,
      "Сотқа": 4631,
      "науқанына": 4632,
      "палатаға": 4633,
      "министрлік": 4634,
      "абырой": 4635,
      "бейн": 4636,
      "тізімге": 4637,
      "жеткізіп": 4638,
      "топтар": 4639,
      "топтың": 4640,
      "мүддесі": 4641,
      "орталықтан": 4642,
      "ашылды": 4643,
      "керіп": 4644,
      "Кездесуде": 4645,
      "Кездесуге": 4646,
      "халқымыздың": 4647,
      "мерзімінен": 4648,
      "сыртқы": 4649,
      "бәсекелестіктің": 4650,
      "әзірге": 4651,
      "күз": 4652,
      "байқаушыларды": 4653,
      "тағдыршешті": 4654,
      "қосылады": 4655,
      "дүние": 4656,
      "Жолдауда": 4657,
      "ұстанымын": 4658,
      "мақұлдау": 4659,
      "сайлаулардың": 4660,
      "Демократия": 4661,
      "Көк": 4662,
      "виде": 4663,
      "жалғасы": 4664,
      "насихаттау": 4665,
      "қуан": 4666,
      "меншікте": 4667,
      "пандемия": 4668,
      "тексере": 4669,
      "қайтару": 4670,
      "бірлестіктер": 4671,
      "дәстүр": 4672,
      "құзыретін": 4673,
      "құзыреті": 4674,
      "одаққа": 4675,
      "экс": 4676,
      "қылмыс": 4677,
      "нұсқасында": 4678,
      "қояды": 4679,
      "өнеркәсі": 4680,
      "мазмұнын": 4681,
      "жасақтал": 4682,
      "функциялары": 4683,
      "жаппай": 4684,
      "танысып": 4685,
      "жақсартуға": 4686,
      "үстемдігі": 4687,
      "мекендерді": 4688,
      "субъек": 4689,
      "ағымдағы": 4690,
      "салыстырғанда": 4691,
      "Президенттікке": 4692,
      "дипломатиялық": 4693,
      "коммуникация": 4694,
      "әдет": 4695,
      "дағдар": 4696,
      "Ұлытау": 4697,
      "Жұртшылық": 4698,
      "сүру": 4699,
      "Павло": 4700,
      "Конституциямыздың": 4701,
      "негізделген": 4702,
      "Өзгерістер": 4703,
      "колледж": 4704,
      "Латвия": 4705,
      "шұғыл": 4706,
      "elegram": 4707,
      "maty": 4708,
      "Цифрлық": 4709,
      "аэро": 4710,
      "азаяды": 4711,
      "өнеркәсібі": 4712,
      "07": 4713,
      "54": 4714,
      "76": 4715,
      "Al": 4716,
      "aq": 4717,
      "az": 4718,
      "em": 4719,
      "gy": 4720,
      "rt": 4721,
      "Айт": 4722,
      "Бауыр": 4723,
      "Гүл": 4724,
      "Дел": 4725,
      "ИС": 4726,
      "КСР": 4727,
      "Нығ": 4728,
      "Неліктен": 4729,
      "Пікір": 4730,
      "Петр": 4731,
      "Сүл": 4732,
      "Сөй": 4733,
      "ТУ": 4734,
      "Фран": 4735,
      "Хабар": 4736,
      "Шар": 4737,
      "Шал": 4738,
      "адағы": 4739,
      "вак": 4740,
      "гір": 4741,
      "гiн": 4742,
      "до": 4743,
      "далып": 4744,
      "еде": 4745,
      "еур": 4746,
      "игі": 4747,
      "ити": 4748,
      "кот": 4749,
      "кур": 4750,
      "кина": 4751,
      "кад": 4752,
      "маң": 4753,
      "малы": 4754,
      "пын": 4755,
      "пол": 4756,
      "пор": 4757,
      "пісбаев": 4758,
      "рал": 4759,
      "сің": 4760,
      "яқ": 4761,
      "Қа": 4762,
      "қақ": 4763,
      "ңыз": 4764,
      "ҮШ": 4765,
      "Әлеумет": 4766,
      "Өр": 4767,
      "алда": 4768,
      "алиев": 4769,
      "стен": 4770,
      "айға": 4771,
      "тілек": 4772,
      "азайту": 4773,
      "өздерін": 4774,
      "імін": 4775,
      "імдел": 4776,
      "імнің": 4777,
      "амат": 4778,
      "кеу": 4779,
      "гімен": 4780,
      "сайлаумен": 4781,
      "біріктір": 4782,
      "бірегей": 4783,
      "басшы": 4784,
      "басылым": 4785,
      "өткелі": 4786,
      "қаралып": 4787,
      "қарсаң": 4788,
      "парта": 4789,
      "аппарат": 4790,
      "келік": 4791,
      "көб": 4792,
      "тежем": 4793,
      "қанағат": 4794,
      "әрқайс": 4795,
      "қалмай": 4796,
      "заңы": 4797,
      "заңымызға": 4798,
      "ағын": 4799,
      "омбудсмен": 4800,
      "лердің": 4801,
      "танылған": 4802,
      "жоя": 4803,
      "қолжет": 4804,
      "отырыстар": 4805,
      "былтыр": 4806,
      "еңбе": 4807,
      "сенеміз": 4808,
      "дегенмен": 4809,
      "дегендей": 4810,
      "ұсынуы": 4811,
      "леп": 4812,
      "жасалды": 4813,
      "облыстағы": 4814,
      "түсетін": 4815,
      "саласындағы": 4816,
      "салада": 4817,
      "көрдік": 4818,
      "жаңашылдық": 4819,
      "азаматтарымыздың": 4820,
      "маңыздылығына": 4821,
      "шешетін": 4822,
      "Республикасында": 4823,
      "Республиканың": 4824,
      "түсініп": 4825,
      "ішінен": 4826,
      "мауға": 4827,
      "шығарылады": 4828,
      "баптар": 4829,
      "жақтап": 4830,
      "тілері": 4831,
      "жағдайында": 4832,
      "ауданының": 4833,
      "ныға": 4834,
      "азаматты": 4835,
      "тасталады": 4836,
      "естен": 4837,
      "сайланбалы": 4838,
      "өңірде": 4839,
      "жүргізуде": 4840,
      "алмасты": 4841,
      "белгілейді": 4842,
      "өмірін": 4843,
      "сатысы": 4844,
      "саясаткерлер": 4845,
      "талқылап": 4846,
      "Қостан": 4847,
      "қолдану": 4848,
      "қолдануға": 4849,
      "қолданысқа": 4850,
      "сайлаушыларға": 4851,
      "өзгертуді": 4852,
      "нәтижесін": 4853,
      "деңгейi": 4854,
      "жоғарыда": 4855,
      "процесіне": 4856,
      "АҚШ": 4857,
      "бірігіп": 4858,
      "бастамаларын": 4859,
      "Бүкіл": 4860,
      "атқаратын": 4861,
      "бәсекеле": 4862,
      "мәслихаттарға": 4863,
      "тоқсан": 4864,
      "циал": 4865,
      "сарапшы": 4866,
      "сараптам": 4867,
      "теле": 4868,
      "тізімін": 4869,
      "жеткізу": 4870,
      "Өздері": 4871,
      "серпін": 4872,
      "спикері": 4873,
      "көшір": 4874,
      "өкілеттіктерді": 4875,
      "орынбасар": 4876,
      "істеген": 4877,
      "Басшысы": 4878,
      "кешкі": 4879,
      "кешіктір": 4880,
      "Кездесулер": 4881,
      "жайында": 4882,
      "учаскелерінің": 4883,
      "елдердің": 4884,
      "iлдi": 4885,
      "мұғал": 4886,
      "соғыс": 4887,
      "қысқа": 4888,
      "біріншіден": 4889,
      "табылатын": 4890,
      "өзгертулерді": 4891,
      "бастамашыл": 4892,
      "егжей": 4893,
      "мақұлдам": 4894,
      "бәріміз": 4895,
      "ұсыныстарын": 4896,
      "қарастырылған": 4897,
      "актілерінің": 4898,
      "Көшім": 4899,
      "бөлімінің": 4900,
      "Облыстардың": 4901,
      "ұзар": 4902,
      "баяндама": 4903,
      "ыңызды": 4904,
      "үлгісінен": 4905,
      "ұстап": 4906,
      "проблема": 4907,
      "бірлестіктің": 4908,
      "алмаймыз": 4909,
      "ардагерлер": 4910,
      "жоюға": 4911,
      "заманауи": 4912,
      "ерекшелігі": 4913,
      "оңтайл": 4914,
      "оқиғаларға": 4915,
      "Сіздің": 4916,
      "Кейбір": 4917,
      "Ресейдің": 4918,
      "елордада": 4919,
      "жүгіну": 4920,
      "легити": 4921,
      "дербестігі": 4922,
      "құралдары": 4923,
      "берушілердің": 4924,
      "тақырыптар": 4925,
      "Теміртау": 4926,
      "сұхб": 4927,
      "Жетпісбаев": 4928,
      "Асанәлі": 4929,
      "ұшыр": 4930,
      "жасырын": 4931,
      "кеңестер": 4932,
      "тегжей": 4933,
      "ұқсас": 4934,
      "Былтыр": 4935,
      "едерация": 4936,
      "саясаттанушылар": 4937,
      "педагогикалық": 4938,
      "Кемел": 4939,
      "дәрігерлер": 4940,
      "кінішке": 4941,
      "либерал": 4942,
      "Павлодар": 4943,
      "аэроғарыш": 4944,
      "Деловой": 4945,
      "Сүлей": 4946,
      "қолжетімді": 4947,
      "легитим": 4948,
      "49": 4949,
      "57": 4950,
      "64": 4951,
      "90": 4952,
      "gem": 4953,
      "it": 4954,
      "Ақор": 4955,
      "Баст": 4956,
      "Вер": 4957,
      "Дәл": 4958,
      "Елеу": 4959,
      "Жыл": 4960,
      "Кен": 4961,
      "Ким": 4962,
      "Осын": 4963,
      "СЫ": 4964,
      "Соған": 4965,
      "ТЫ": 4966,
      "ТӨ": 4967,
      "Шет": 4968,
      "Шығ": 4969,
      "аген": 4970,
      "бы": 4971,
      "гелді": 4972,
      "гіміздің": 4973,
      "дода": 4974,
      "карт": 4975,
      "кетуі": 4976,
      "лия": 4977,
      "рұқ": 4978,
      "то": 4979,
      "тінде": 4980,
      "тайды": 4981,
      "тейді": 4982,
      "уымыз": 4983,
      "ьгия": 4984,
      "Ғалым": 4985,
      "ҚА": 4986,
      "Үгіт": 4987,
      "ӘКІМ": 4988,
      "әді": 4989,
      "Өткен": 4990,
      "арен": 4991,
      "ене": 4992,
      "анады": 4993,
      "алыс": 4994,
      "дым": 4995,
      "аттың": 4996,
      "айсыз": 4997,
      "ауымыз": 4998,
      "елес": 4999,
      "елдері": 5000,
      "ыңғай": 5001,
      "ақш": 5002,
      "туындайды": 5003,
      "она": 5004,
      "ғымыз": 5005,
      "ымда": 5006,
      "бастан": 5007,
      "басшылығы": 5008,
      "берме": 5009,
      "дықтары": 5010,
      "дайтын": 5011,
      "келуі": 5012,
      "келтіре": 5013,
      "ісіп": 5014,
      "ейіт": 5015,
      "қатты": 5016,
      "қаланың": 5017,
      "қалайтын": 5018,
      "қалмауы": 5019,
      "сыбайл": 5020,
      "алығы": 5021,
      "заңымыздың": 5022,
      "дерге": 5023,
      "тандыр": 5024,
      "айтатын": 5025,
      "ованың": 5026,
      "құрған": 5027,
      "тигіз": 5028,
      "қолдаған": 5029,
      "енгізеді": 5030,
      "дауысын": 5031,
      "бастау": 5032,
      "еңсер": 5033,
      "діктен": 5034,
      "Президентті": 5035,
      "үндеу": 5036,
      "тұру": 5037,
      "есеб": 5038,
      "енгізілгелі": 5039,
      "өнім": 5040,
      "құқықтар": 5041,
      "жерді": 5042,
      "жердің": 5043,
      "ымыздан": 5044,
      "артып": 5045,
      "алғандар": 5046,
      "жандар": 5047,
      "жанов": 5048,
      "екендігін": 5049,
      "мемлекетке": 5050,
      "мемлекетіміздің": 5051,
      "ауылының": 5052,
      "ауылындағы": 5053,
      "ниет": 5054,
      "жұмысының": 5055,
      "жұмыспен": 5056,
      "Референдумнан": 5057,
      "байқалады": 5058,
      "ұйымның": 5059,
      "жарам": 5060,
      "күшті": 5061,
      "аудандар": 5062,
      "қызметкері": 5063,
      "Сенатор": 5064,
      "сонда": 5065,
      "орынды": 5066,
      "аясындағы": 5067,
      "жүргізген": 5068,
      "тиіспіз": 5069,
      "тағайындайтын": 5070,
      "тұрғыны": 5071,
      "қолдауы": 5072,
      "қабылданып": 5073,
      "қабылданса": 5074,
      "қалыпты": 5075,
      "жастармен": 5076,
      "институтын": 5077,
      "бәсеке": 5078,
      "орнату": 5079,
      "Оларды": 5080,
      "күшейтеді": 5081,
      "сайлаушыларының": 5082,
      "жариялау": 5083,
      "талаптарға": 5084,
      "кетіп": 5085,
      "1991": 5086,
      "жаңалық": 5087,
      "палаталарының": 5088,
      "болмай": 5089,
      "жүйемен": 5090,
      "мейл": 5091,
      "мәнін": 5092,
      "Назарбаевқа": 5093,
      "Кезінде": 5094,
      "қайтадан": 5095,
      "спек": 5096,
      "түсіндірілді": 5097,
      "Айдос": 5098,
      "қажеттілігі": 5099,
      "Жоғарыда": 5100,
      "лауазымдар": 5101,
      "барлығымыз": 5102,
      "қызметінен": 5103,
      "раф": 5104,
      "қарастыру": 5105,
      "Төрағасын": 5106,
      "үстел": 5107,
      "тармағына": 5108,
      "төменгі": 5109,
      "төмендеген": 5110,
      "НДЕ": 5111,
      "кеңейеді": 5112,
      "социал": 5113,
      "кандидаты": 5114,
      "анықтайды": 5115,
      "ұстанымы": 5116,
      "ологиялық": 5117,
      "сарапшылармен": 5118,
      "пайдаланып": 5119,
      "Еліміздегі": 5120,
      "тәртіпті": 5121,
      "жариялап": 5122,
      "Саясаттанушы": 5123,
      "тағайындалады": 5124,
      "артықшылық": 5125,
      "Сарым": 5126,
      "қалаларында": 5127,
      "Әкімдер": 5128,
      "облыстардың": 5129,
      "тетіктерін": 5130,
      "депутаттыққа": 5131,
      "идеяс": 5132,
      "заңнамаға": 5133,
      "қоятын": 5134,
      "мазмұндағы": 5135,
      "ғылықты": 5136,
      "сүйеніп": 5137,
      "Бельгия": 5138,
      "факуль": 5139,
      "аяқталады": 5140,
      "дербестігін": 5141,
      "сөйлеген": 5142,
      "amy": 5143,
      "Бейсен": 5144,
      "көлемінде": 5145,
      "Мұнда": 5146,
      "денсаулық": 5147,
      "сұхбат": 5148,
      "қамтылған": 5149,
      "Украина": 5150,
      "банк": 5151,
      "іргетасы": 5152,
      "Учаскелік": 5153,
      "салтанат": 5154,
      "экспери": 5155,
      "КеАҚ": 5156,
      "Тарих": 5157,
      "Прок": 5158,
      "Және": 5159,
      "консул": 5160,
      "АВТОРЫ": 5161,
      "жүйесіндегі": 5162,
      "кепілдік": 5163,
      "гөрі": 5164,
      "ипов": 5165,
      "сессия": 5166,
      "Almaty": 5167,
      "Сөйтіп": 5168,
      "тегжейлі": 5169,
      "gemen": 5170,
      "Вера": 5171,
      "Шығыс": 5172,
      "рұқсат": 5173,
      "32": 5174,
      "35": 5175,
      "87": 5176,
      "IT": 5177,
      "Ken": 5178,
      "dum": 5179,
      "ef": 5180,
      "Ат": 5181,
      "Бэл": 5182,
      "Гер": 5183,
      "Дин": 5184,
      "ЖШ": 5185,
      "ИК": 5186,
      "Ко": 5187,
      "Кәс": 5188,
      "Ме": 5189,
      "Мах": 5190,
      "НІ": 5191,
      "Сан": 5192,
      "Тү": 5193,
      "ЫНД": 5194,
      "быз": 5195,
      "бейді": 5196,
      "еп": 5197,
      "еген": 5198,
      "жұр": 5199,
      "жайт": 5200,
      "жаст": 5201,
      "иет": 5202,
      "ине": 5203,
      "итарлық": 5204,
      "кт": 5205,
      "кия": 5206,
      "күл": 5207,
      "мады": 5208,
      "міт": 5209,
      "муни": 5210,
      "сə": 5211,
      "сір": 5212,
      "сем": 5213,
      "съез": 5214,
      "тып": 5215,
      "тәу": 5216,
      "төңір": 5217,
      "уч": 5218,
      "фу": 5219,
      "финг": 5220,
      "шi": 5221,
      "ьяс": 5222,
      "юі": 5223,
      "яғы": 5224,
      "Ғани": 5225,
      "ҚБ": 5226,
      "ҚАН": 5227,
      "ҚОЛ": 5228,
      "Үміт": 5229,
      "ӨЗ": 5230,
      "арта": 5231,
      "еркі": 5232,
      "аласыз": 5233,
      "аламын": 5234,
      "ықыл": 5235,
      "етер": 5236,
      "ылов": 5237,
      "ылуға": 5238,
      "асақ": 5239,
      "еледі": 5240,
      "елордалық": 5241,
      "ақпар": 5242,
      "ғап": 5243,
      "екісі": 5244,
      "ескеріп": 5245,
      "ірек": 5246,
      "тартыл": 5247,
      "аңғар": 5248,
      "өзінен": 5249,
      "ырза": 5250,
      "қашық": 5251,
      "сайлайтын": 5252,
      "бірауыздан": 5253,
      "үшiн": 5254,
      "бара": 5255,
      "парыз": 5256,
      "даның": 5257,
      "әсері": 5258,
      "референдумдағы": 5259,
      "түйт": 5260,
      "шах": 5261,
      "көбін": 5262,
      "әрине": 5263,
      "қалп": 5264,
      "инаның": 5265,
      "заңдық": 5266,
      "ағайын": 5267,
      "кезден": 5268,
      "кезіндегі": 5269,
      "құбыл": 5270,
      "леріне": 5271,
      "танысты": 5272,
      "овтің": 5273,
      "құрмет": 5274,
      "құқығының": 5275,
      "биік": 5276,
      "қоғамдаст": 5277,
      "гінен": 5278,
      "әкіміне": 5279,
      "жеткен": 5280,
      "ұсынысы": 5281,
      "ұсынуға": 5282,
      "жасай": 5283,
      "облыста": 5284,
      "2000": 5285,
      "білеміз": 5286,
      "санаймын": 5287,
      "көрм": 5288,
      "көрді": 5289,
      "ландыр": 5290,
      "кездегі": 5291,
      "Мәжілісті": 5292,
      "шешуі": 5293,
      "беделі": 5294,
      "жолмен": 5295,
      "негіздерде": 5296,
      "Реформ": 5297,
      "ауылында": 5298,
      "президентке": 5299,
      "оңай": 5300,
      "әуелі": 5301,
      "опалық": 5302,
      "оппон": 5303,
      "жауаб": 5304,
      "жарн": 5305,
      "ауданындағы": 5306,
      "пікірлері": 5307,
      "пікірімен": 5308,
      "таңдап": 5309,
      "ашып": 5310,
      "нығ": 5311,
      "азаматының": 5312,
      "Орал": 5313,
      "тыныс": 5314,
      "қатарына": 5315,
      "келгені": 5316,
      "жүргізіледі": 5317,
      "көздейтін": 5318,
      "есепке": 5319,
      "бағыты": 5320,
      "өмірге": 5321,
      "өмірінің": 5322,
      "Еркін": 5323,
      "мәселелеріне": 5324,
      "бағыттары": 5325,
      "хаттама": 5326,
      "саясаттың": 5327,
      "тұңғыш": 5328,
      "кезеңді": 5329,
      "осылай": 5330,
      "күшейтіп": 5331,
      "өткендей": 5332,
      "нәтиже": 5333,
      "iнiң": 5334,
      "мағұл": 5335,
      "дайындығы": 5336,
      "тәрби": 5337,
      "бөлу": 5338,
      "солай": 5339,
      "тармақтар": 5340,
      "шілігінің": 5341,
      "атқарылуын": 5342,
      "мүге": 5343,
      "мәслихаттың": 5344,
      "тылығы": 5345,
      "мәслихаттары": 5346,
      "жаңарт": 5347,
      "міндеттерін": 5348,
      "берік": 5349,
      "беріңіз": 5350,
      "жүйеден": 5351,
      "тізімі": 5352,
      "асыратын": 5353,
      "сеніммен": 5354,
      "облысындағы": 5355,
      "ациялау": 5356,
      "ескерсек": 5357,
      "түсіндірме": 5358,
      "шетелдегі": 5359,
      "Ауған": 5360,
      "институттары": 5361,
      "институттарын": 5362,
      "қажеттігі": 5363,
      "2005": 5364,
      "істеуі": 5365,
      "тәуелсіздік": 5366,
      "алатынын": 5367,
      "мир": 5368,
      "алудың": 5369,
      "куәлігінің": 5370,
      "орталығында": 5371,
      "жайын": 5372,
      "АТЫ": 5373,
      "Түркия": 5374,
      "заңдылығын": 5375,
      "тармағын": 5376,
      "күтіп": 5377,
      "заңнаманы": 5378,
      "мұқ": 5379,
      "кеңесшісі": 5380,
      "кеңейтіледі": 5381,
      "қосылды": 5382,
      "алаңында": 5383,
      "әлемдегі": 5384,
      "сөйл": 5385,
      "сөйлес": 5386,
      "сөйлем": 5387,
      "Әрі": 5388,
      "ұйымдастырды": 5389,
      "судьяс": 5390,
      "Үкіметтің": 5391,
      "құрылтай": 5392,
      "пақов": 5393,
      "Спикер": 5394,
      "бөлімш": 5395,
      "кандидатура": 5396,
      "қағид": 5397,
      "жалғасады": 5398,
      "іңізді": 5399,
      "шығатын": 5400,
      "режім": 5401,
      "қараша": 5402,
      "Байпақов": 5403,
      "қойнауын": 5404,
      "болашақта": 5405,
      "болашаққа": 5406,
      "СІМ": 5407,
      "шарттар": 5408,
      "қылмыстар": 5409,
      "endum": 5410,
      "атсалысуға": 5411,
      "жалғастыр": 5412,
      "үздік": 5413,
      "зерттеулердің": 5414,
      "оқиғасы": 5415,
      "студенттер": 5416,
      "Жұмыс": 5417,
      "жоспарланған": 5418,
      "нұсқасын": 5419,
      "көзделіп": 5420,
      "мәліметтер": 5421,
      "Консти": 5422,
      "сауалнам": 5423,
      "ДАҒЫ": 5424,
      "тұлғалар": 5425,
      "трансформацияның": 5426,
      "аспайтын": 5427,
      "босату": 5428,
      "инновациялық": 5429,
      "erendum": 5430,
      "Төрт": 5431,
      "тақырыбында": 5432,
      "Сарапшы": 5433,
      "Омбудсмен": 5434,
      "денсаулығына": 5435,
      "Сапар": 5436,
      "Семинарға": 5437,
      "брифинг": 5438,
      "толықтырылсын": 5439,
      "боры": 5440,
      "жиналыстар": 5441,
      "монополиясын": 5442,
      "танымал": 5443,
      "аккредиттелді": 5444,
      "қыркүйекте": 5445,
      "ғимаратында": 5446,
      "Зерттеу": 5447,
      "alygy": 5448,
      "Тәжі": 5449,
      "жабдық": 5450,
      "үміттенеміз": 5451,
      "Университет": 5452,
      "Алғаш": 5453,
      "белсенділері": 5454,
      "кабинет": 5455,
      "rtalygy": 5456,
      "Бауыржан": 5457,
      "КСРО": 5458,
      "еуропалық": 5459,
      "кадр": 5460,
      "тежемелік": 5461,
      "Қостанай": 5462,
      "сұхбаттар": 5463,
      "дәрігерлермен": 5464,
      "эксперимент": 5465,
      "Kenes": 5466,
      "eferendum": 5467,
      "Бэлла": 5468,
      "Динара": 5469,
      "ЖШС": 5470,
      "Кәсіп": 5471,
      "жұрты": 5472,
      "түйткіл": 5473,
      "!\"": 5474,
      ".].": 5475,
      "51": 5476,
      "AQ": 5477,
      "AZ": 5478,
      "la": 5479,
      "ІСІ": 5480,
      "Ахмет": 5481,
      "Ди": 5482,
      "Ден": 5483,
      "Джо": 5484,
      "Дүн": 5485,
      "ЗЫ": 5486,
      "Ин": 5487,
      "Көр": 5488,
      "Киев": 5489,
      "Лил": 5490,
      "Неге": 5491,
      "Сау": 5492,
      "Сұр": 5493,
      "Сей": 5494,
      "Самат": 5495,
      "Смағұл": 5496,
      "ТА": 5497,
      "Таң": 5498,
      "Түз": 5499,
      "УЛ": 5500,
      "ША": 5501,
      "Шә": 5502,
      "ажыр": 5503,
      "га": 5504,
      "дум": 5505,
      "далды": 5506,
      "дина": 5507,
      "ехн": 5508,
      "кп": 5509,
      "калық": 5510,
      "ков": 5511,
      "лис": 5512,
      "мор": 5513,
      "мөр": 5514,
      "нама": 5515,
      "пек": 5516,
      "пайды": 5517,
      "премьер": 5518,
      "тативтік": 5519,
      "төндір": 5520,
      "хам": 5521,
      "шат": 5522,
      "ъекті": 5523,
      "эн": 5524,
      "іші": 5525,
      "қон": 5526,
      "қақты": 5527,
      "Әлі": 5528,
      "Өте": 5529,
      "арылу": 5530,
      "анна": 5531,
      "алмаған": 5532,
      "алиция": 5533,
      "альян": 5534,
      "інді": 5535,
      "інген": 5536,
      "дығына": 5537,
      "стың": 5538,
      "делег": 5539,
      "департа": 5540,
      "ауру": 5541,
      "асуы": 5542,
      "елей": 5543,
      "ақысы": 5544,
      "ияр": 5545,
      "ілік": 5546,
      "екеу": 5547,
      "туциялық": 5548,
      "кест": 5549,
      "қағаз": 5550,
      "баяғы": 5551,
      "сайлауының": 5552,
      "біржол": 5553,
      "біртінде": 5554,
      "дене": 5555,
      "дармен": 5556,
      "дарымен": 5557,
      "бермей": 5558,
      "өткi": 5559,
      "бару": 5560,
      "қарсым": 5561,
      "дыққа": 5562,
      "келелі": 5563,
      "келуіне": 5564,
      "ісінің": 5565,
      "жүре": 5566,
      "шағын": 5567,
      "ларының": 5568,
      "шылығына": 5569,
      "әрмен": 5570,
      "әркімнің": 5571,
      "қалы": 5572,
      "аларында": 5573,
      "таны": 5574,
      "таныту": 5575,
      "шегін": 5576,
      "лікке": 5577,
      "термен": 5578,
      "терінде": 5579,
      "құралы": 5580,
      "қолдаса": 5581,
      "билігінің": 5582,
      "ева": 5583,
      "отыра": 5584,
      "депутатын": 5585,
      "бастайтын": 5586,
      "дағыдай": 5587,
      "бойкот": 5588,
      "жете": 5589,
      "жетеді": 5590,
      "жетеміз": 5591,
      "тұрғылықты": 5592,
      "дегені": 5593,
      "жасайтын": 5594,
      "жасанды": 5595,
      "жүйемізді": 5596,
      "ихан": 5597,
      "облыстың": 5598,
      "түсетіні": 5599,
      "мәселесіне": 5600,
      "салады": 5601,
      "салдарынан": 5602,
      "білетін": 5603,
      "шілерімен": 5604,
      "маг": 5605,
      "Парламенттік": 5606,
      "демек": 5607,
      "жүрміз": 5608,
      "жолды": 5609,
      "жолымен": 5610,
      "өзгеретін": 5611,
      "өзгертіл": 5612,
      "қарушы": 5613,
      "ауылда": 5614,
      "конституцияға": 5615,
      "әлсір": 5616,
      "сөзі": 5617,
      "ішіндегі": 5618,
      "шығарды": 5619,
      "шығаруға": 5620,
      "шығарылатын": 5621,
      "қайшы": 5622,
      "қайнар": 5623,
      "ұйымы": 5624,
      "шарасы": 5625,
      "жағдайы": 5626,
      "жағдайын": 5627,
      "жағдайға": 5628,
      "ауданында": 5629,
      "Нұрғалиев": 5630,
      "Нұркина": 5631,
      "ашықты": 5632,
      "ағаны": 5633,
      "ный": 5634,
      "шешімдері": 5635,
      "қойылды": 5636,
      "Заңды": 5637,
      "Заңына": 5638,
      "Заңымыздың": 5639,
      "сұраймыз": 5640,
      "маусымдағы": 5641,
      "Осыдан": 5642,
      "сақтай": 5643,
      "орындал": 5644,
      "жүргізілген": 5645,
      "жүргізілді": 5646,
      "кейінге": 5647,
      "алмасу": 5648,
      "қатысуына": 5649,
      "жалпыға": 5650,
      "Ертең": 5651,
      "қолдауымен": 5652,
      "кандидатқа": 5653,
      "бағытында": 5654,
      "тұстары": 5655,
      "жастары": 5656,
      "деңгейге": 5657,
      "президенттіктен": 5658,
      "конф": 5659,
      "процесінің": 5660,
      "процесс": 5661,
      "АҚБ": 5662,
      "тармақтарының": 5663,
      "хабарласып": 5664,
      "айналып": 5665,
      "Ендігі": 5666,
      "бастамалардың": 5667,
      "шектерде": 5668,
      "атқарылып": 5669,
      "мәслихатында": 5670,
      "қорғауды": 5671,
      "қорғаудың": 5672,
      "сарапшылардың": 5673,
      "норманы": 5674,
      "жинаған": 5675,
      "тізімінде": 5676,
      "өзіндік": 5677,
      "облысына": 5678,
      "шетау": 5679,
      "Аудиторлық": 5680,
      "институттарының": 5681,
      "көтерді": 5682,
      "көтерілген": 5683,
      "трен": 5684,
      "тәуелсіздігін": 5685,
      "бергені": 5686,
      "жіті": 5687,
      "пеген": 5688,
      "округі": 5689,
      "аймақтың": 5690,
      "мүшелерін": 5691,
      "келісімі": 5692,
      "балама": 5693,
      "басқарма": 5694,
      "қазақстандықтарды": 5695,
      "қазақстандықтарға": 5696,
      "Мәскеу": 5697,
      "күтіл": 5698,
      "айымы": 5699,
      "анықтал": 5700,
      "кеңеске": 5701,
      "байқаушыларға": 5702,
      "қалыптастырудың": 5703,
      "алаңының": 5704,
      "батыл": 5705,
      "дүнген": 5706,
      "өтуіне": 5707,
      "ұйымдастырылды": 5708,
      "ауқым": 5709,
      "бағдарламасының": 5710,
      "бұрынғыша": 5711,
      "бәріне": 5712,
      "объек": 5713,
      "қалыптасып": 5714,
      "актілердің": 5715,
      "шешімдерді": 5716,
      "комиссиялардың": 5717,
      "жетілдір": 5718,
      "судьяларын": 5719,
      "шығуға": 5720,
      "қиындықтарға": 5721,
      "ыңызға": 5722,
      "учаскедегі": 5723,
      "Азаматтар": 5724,
      "процед": 5725,
      "матул": 5726,
      "кемшілік": 5727,
      "Саясаткер": 5728,
      "модельді": 5729,
      "есептеймін": 5730,
      "алмайтынын": 5731,
      "Депутат": 5732,
      "Жақсы": 5733,
      "Тәуелсіздік": 5734,
      "сөздермен": 5735,
      "экономика": 5736,
      "сұранысына": 5737,
      "нұсқасы": 5738,
      "Әлия": 5739,
      "өркендеу": 5740,
      "ғалымдар": 5741,
      "сүйене": 5742,
      "прокурат": 5743,
      "тұжырымдамалық": 5744,
      "тұжырымдамасын": 5745,
      "технологиялар": 5746,
      "осыны": 5747,
      "осынау": 5748,
      "отандық": 5749,
      "талабы": 5750,
      "миссиясының": 5751,
      "фракциясының": 5752,
      "босатуға": 5753,
      "материалдар": 5754,
      "атауын": 5755,
      "тағайындауына": 5756,
      "тақырыбы": 5757,
      "Мәдина": 5758,
      "қалыптастырып": 5759,
      "түсінуіміз": 5760,
      "дәрежеде": 5761,
      "қауымдастығының": 5762,
      "Азаматтық": 5763,
      "Еуропалық": 5764,
      "циналық": 5765,
      "аграрлық": 5766,
      "әріптестер": 5767,
      "жүргізілуде": 5768,
      "жүктел": 5769,
      "Мәслихаттардың": 5770,
      "шаруашылық": 5771,
      "медицина": 5772,
      "әзірленген": 5773,
      "Жарлыққа": 5774,
      "ақсақалдар": 5775,
      "қызығушылығын": 5776,
      "аралығында": 5777,
      "Төлеби": 5778,
      "Достық": 5779,
      "түгелдей": 5780,
      "Жобада": 5781,
      "Супер": 5782,
      "басқармасының": 5783,
      "зейнет": 5784,
      "офлайн": 5785,
      "Көкшетау": 5786,
      "Нығматул": 5787,
      "Франция": 5788,
      "вакцин": 5789,
      "қарсаңында": 5790,
      "ұзартуға": 5791,
      "Кемелұлы": 5792,
      "ейітов": 5793,
      "мейлінше": 5794,
      "Тарихи": 5795,
      "Атқарушы": 5796,
      "мүгедек": 5797,
      "Тәжібаев": 5798,
      "Джоанна": 5799,
      "Лиллис": 5800,
      "Түзету": 5801,
      "біртіндеп": 5802,
      "өткiз": 5803,
      "қарсымын": 5804,
      "объективті": 5805,
      "36": 5806,
      "58": 5807,
      "600": 5808,
      "73": 5809,
      "85": 5810,
      "89": 5811,
      "?!": 5812,
      "Egemen": 5813,
      "KAZ": 5814,
      "Ortalygy": 5815,
      "Ph": 5816,
      "eb": 5817,
      "iз": 5818,
      "ll": 5819,
      "ut": 5820,
      "ym": 5821,
      "ІК": 5822,
      "АСТ": 5823,
      "БЛ": 5824,
      "Бут": 5825,
      "Дар": 5826,
      "ДЕН": 5827,
      "ДАМ": 5828,
      "Егін": 5829,
      "ЕТІ": 5830,
      "Жоқ": 5831,
      "Кесе": 5832,
      "Осының": 5833,
      "Пол": 5834,
      "РАМ": 5835,
      "Со": 5836,
      "СЫНЫҢ": 5837,
      "Тай": 5838,
      "ТАР": 5839,
      "ШЫЛ": 5840,
      "апар": 5841,
      "бетінше": 5842,
      "бiлдi": 5843,
      "гімізді": 5844,
      "дик": 5845,
      "жұ": 5846,
      "жасы": 5847,
      "иды": 5848,
      "игер": 5849,
      "или": 5850,
      "кат": 5851,
      "ля": 5852,
      "метті": 5853,
      "мөлш": 5854,
      "рол": 5855,
      "сц": 5856,
      "ске": 5857,
      "салық": 5858,
      "уз": 5859,
      "хар": 5860,
      "шу": 5861,
      "шам": 5862,
      "шықп": 5863,
      "ғындағы": 5864,
      "ғасыр": 5865,
      "ҚАР": 5866,
      "ҚАТ": 5867,
      "қасы": 5868,
      "Әлих": 5869,
      "әк": 5870,
      "Өкінішке": 5871,
      "арыз": 5872,
      "еніп": 5873,
      "ыны": 5874,
      "еркiн": 5875,
      "ана": 5876,
      "андыр": 5877,
      "алап": 5878,
      "алдары": 5879,
      "дебат": 5880,
      "атылық": 5881,
      "айының": 5882,
      "ықтар": 5883,
      "ылуына": 5884,
      "елден": 5885,
      "ақы": 5886,
      "ақұр": 5887,
      "ақтық": 5888,
      "тіле": 5889,
      "аза": 5890,
      "азыл": 5891,
      "тарта": 5892,
      "тартуға": 5893,
      "тарату": 5894,
      "оннан": 5895,
      "ория": 5896,
      "ырма": 5897,
      "амақ": 5898,
      "айлым": 5899,
      "кеше": 5900,
      "болдық": 5901,
      "тая": 5902,
      "циясы": 5903,
      "гені": 5904,
      "денті": 5905,
      "берер": 5906,
      "берінде": 5907,
      "береке": 5908,
      "барлығына": 5909,
      "қарма": 5910,
      "қаралған": 5911,
      "дандыру": 5912,
      "ейін": 5913,
      "шаһ": 5914,
      "отбасы": 5915,
      "қателік": 5916,
      "көру": 5917,
      "көбе": 5918,
      "көмір": 5919,
      "көме": 5920,
      "қаншама": 5921,
      "қалдық": 5922,
      "қалмаған": 5923,
      "инфр": 5924,
      "дермен": 5925,
      "өзгеріп": 5926,
      "құттық": 5927,
      "атынына": 5928,
      "алармен": 5929,
      "тания": 5930,
      "талқыс": 5931,
      "құраса": 5932,
      "құрылып": 5933,
      "тиім": 5934,
      "қолын": 5935,
      "қолына": 5936,
      "өзгерістерде": 5937,
      "іміздегі": 5938,
      "құқы": 5939,
      "отырды": 5940,
      "бастұз": 5941,
      "ұмтыл": 5942,
      "суды": 5943,
      "сенуі": 5944,
      "әкімдік": 5945,
      "жетік": 5946,
      "тұрм": 5947,
      "өкілеті": 5948,
      "Алды": 5949,
      "Алла": 5950,
      "жүйелер": 5951,
      "салуға": 5952,
      "білген": 5953,
      "біліп": 5954,
      "етуде": 5955,
      "комиссиясында": 5956,
      "санат": 5957,
      "санасу": 5958,
      "реформаға": 5959,
      "құқықтарының": 5960,
      "сіздіктер": 5961,
      "алғандардың": 5962,
      "жолдаған": 5963,
      "жөндеу": 5964,
      "оқыт": 5965,
      "бекер": 5966,
      "мемлекетімізді": 5967,
      "төрағалығы": 5968,
      "әлсіз": 5969,
      "сөздері": 5970,
      "ішін": 5971,
      "байқа": 5972,
      "қайда": 5973,
      "ақылдас": 5974,
      "жарты": 5975,
      "шараны": 5976,
      "жақындай": 5977,
      "табан": 5978,
      "аудандарында": 5979,
      "таңдайды": 5980,
      "қызметтен": 5981,
      "Сенаты": 5982,
      "шешімге": 5983,
      "уақас": 5984,
      "сұрады": 5985,
      "сұрап": 5986,
      "сайлану": 5987,
      "тыныш": 5988,
      "жатқандығын": 5989,
      "енгізудің": 5990,
      "қатарынан": 5991,
      "жазып": 5992,
      "немқұр": 5993,
      "Тоқаевқа": 5994,
      "жүргізеді": 5995,
      "болғанда": 5996,
      "тиісінше": 5997,
      "қатысудың": 5998,
      "тіршілі": 5999,
      "кездесуі": 6000,
      "бағытын": 6001,
      "көрсете": 6002,
      "берілетін": 6003,
      "мәселелерге": 6004,
      "арнасында": 6005,
      "қолдауына": 6006,
      "депутаттың": 6007,
      "енгізілетінін": 6008,
      "мүмкіндіктерін": 6009,
      "үйінде": 6010,
      "тіні": 6011,
      "ағаш": 6012,
      "дамудың": 6013,
      "сайлаушылармен": 6014,
      "нәтижесi": 6015,
      "қабылдауды": 6016,
      "ешбір": 6017,
      "мекте": 6018,
      "кетсек": 6019,
      "аныш": 6020,
      "келісіп": 6021,
      "сауықтыру": 6022,
      "өткізілгелі": 6023,
      "хабарламалар": 6024,
      "таңдауы": 6025,
      "атқара": 6026,
      "атқарылуы": 6027,
      "импер": 6028,
      "хана": 6029,
      "араласуы": 6030,
      "абзал": 6031,
      "Бұның": 6032,
      "нормалар": 6033,
      "жинап": 6034,
      "сайты": 6035,
      "тізімдер": 6036,
      "Өзге": 6037,
      "Өзбек": 6038,
      "көтеріп": 6039,
      "форматтар": 6040,
      "сенімсіздік": 6041,
      "ашықтық": 6042,
      "зерттеп": 6043,
      "ациялық": 6044,
      "түсіндіріл": 6045,
      "Айталық": 6046,
      "топтардың": 6047,
      "бетова": 6048,
      "институттың": 6049,
      "мүддесіне": 6050,
      "көтерілді": 6051,
      "мәлімдем": 6052,
      "орталықтар": 6053,
      "пайызын": 6054,
      "орынбасарлар": 6055,
      "еріксіз": 6056,
      "Адамдар": 6057,
      "Басқарма": 6058,
      "керісінше": 6059,
      "мәртебесіне": 6060,
      "ететіні": 6061,
      "назардан": 6062,
      "келісімге": 6063,
      "қаладағы": 6064,
      "учаскелерді": 6065,
      "ресурстық": 6066,
      "республиканың": 6067,
      "қабылдайсыз": 6068,
      "төмендету": 6069,
      "шілермен": 6070,
      "учаскесінің": 6071,
      "ционалдық": 6072,
      "өңірлерде": 6073,
      "өңірлердегі": 6074,
      "кәсіподақ": 6075,
      "соғ": 6076,
      "әлемнің": 6077,
      "өтуін": 6078,
      "сөйтіп": 6079,
      "көзқарасын": 6080,
      "анықтайтын": 6081,
      "анықтауға": 6082,
      "жобаларды": 6083,
      "Үкіметі": 6084,
      "құрамы": 6085,
      "Арда": 6086,
      "Арайлым": 6087,
      "мақұлдан": 6088,
      "мақұлдап": 6089,
      "ұсыныстарды": 6090,
      "жарияланады": 6091,
      "қарастырылады": 6092,
      "изациялау": 6093,
      "шешімдерге": 6094,
      "ресурстардың": 6095,
      "мәдениетін": 6096,
      "тегідей": 6097,
      "үлгісін": 6098,
      "ахмет": 6099,
      "елесті": 6100,
      "бірлестіктердің": 6101,
      "ұжымы": 6102,
      "білдіруге": 6103,
      "дүниесін": 6104,
      "авт": 6105,
      "ғысынан": 6106,
      "ардагер": 6107,
      "кездесетін": 6108,
      "әрекеттер": 6109,
      "тұлға": 6110,
      "оқытушылар": 6111,
      "тапсырды": 6112,
      "Барлығы": 6113,
      "қатысушыларға": 6114,
      "құжатына": 6115,
      "желтоқсан": 6116,
      "кодек": 6117,
      "күрес": 6118,
      "алмайтыны": 6119,
      "iндегi": 6120,
      "индексiн": 6121,
      "сезіне": 6122,
      "орындамаған": 6123,
      "Биліктің": 6124,
      "әңгімелесті": 6125,
      "тобының": 6126,
      "қоюға": 6127,
      "сұранысы": 6128,
      "сипатқа": 6129,
      "Ресейдегі": 6130,
      "Негізі": 6131,
      "қаңтарда": 6132,
      "бағалау": 6133,
      "Белгілі": 6134,
      "басшыларымен": 6135,
      "қайраткері": 6136,
      "процестерді": 6137,
      "аспекті": 6138,
      "ЖСН": 6139,
      "әйелдер": 6140,
      "шешіледі": 6141,
      "үстемдігін": 6142,
      "нәтижелерін": 6143,
      "жемқорлыққа": 6144,
      "материалдық": 6145,
      "Мәжілістегі": 6146,
      "қатынас": 6147,
      "көлемде": 6148,
      "Жандос": 6149,
      "салыстырмалы": 6150,
      "тамызда": 6151,
      "иеленуге": 6152,
      "артуы": 6153,
      "көбейіп": 6154,
      "коммуни": 6155,
      "ДЕПУ": 6156,
      "Келесі": 6157,
      "Талғат": 6158,
      "мысал": 6159,
      "уәделерін": 6160,
      "квотасы": 6161,
      "сайтында": 6162,
      "Бақылаушы": 6163,
      "агро": 6164,
      "сүріп": 6165,
      "қашанда": 6166,
      "шағымдана": 6167,
      "іргетасын": 6168,
      "Балайым": 6169,
      "мұра": 6170,
      "жайлар": 6171,
      "баршаңызды": 6172,
      "Алтынбек": 6173,
      "тармақшадағы": 6174,
      "миллионнан": 6175,
      "Екібастұз": 6176,
      "газет": 6177,
      "көкейінде": 6178,
      "өлшем": 6179,
      "Аудандық": 6180,
      "шоғырланған": 6181,
      "сервисі": 6182,
      "МӘЖ": 6183,
      "шілдеде": 6184,
      "тапсырмалар": 6185,
      "теңгерімді": 6186,
      "Наурызбай": 6187,
      "Данияр": 6188,
      "даярлау": 6189,
      "Орынбетова": 6190,
      "Сарыөмір": 6191,
      "Әйтпесе": 6192,
      "шеңберінде": 6193,
      "Петров": 6194,
      "омбудсменнің": 6195,
      "мұғалім": 6196,
      "Кенже": 6197,
      "агентті": 6198,
      "бермеу": 6199,
      "сыбайлас": 6200,
      "Сенаторлар": 6201,
      "Бельгиядағы": 6202,
      "көбінесе": 6203,
      "қалпына": 6204,
      "оппонент": 6205,
      "борышы": 6206,
      "Денсау": 6207,
      "PhD": 6208,
      "ШЫЛАР": 6209,
      "Әлихан": 6210,
      "ақұрылым": 6211,
      "инфрақұрылым": 6212,
      "ДЕПУТ": 6213,
      "88": 6214,
      "95": 6215,
      "BAQ": 6216,
      "IN": 6217,
      "OR": 6218,
      "Telegram": 6219,
      "ci": 6220,
      "co": 6221,
      "iгi": 6222,
      "Аи": 6223,
      "Ақыл": 6224,
      "Ашық": 6225,
      "Бо": 6226,
      "Бағ": 6227,
      "Бәрі": 6228,
      "Басты": 6229,
      "Бапи": 6230,
      "БАЕВ": 6231,
      "Бесінші": 6232,
      "Вик": 6233,
      "Вла": 6234,
      "ГЕН": 6235,
      "ДАЙ": 6236,
      "ДЕР": 6237,
      "ЕҰ": 6238,
      "ЖӘ": 6239,
      "Из": 6240,
      "Иса": 6241,
      "КІ": 6242,
      "ЛАН": 6243,
      "Маңызды": 6244,
      "Нат": 6245,
      "Оң": 6246,
      "Олег": 6247,
      "Сағын": 6248,
      "Ти": 6249,
      "Уәл": 6250,
      "Уақыт": 6251,
      "Хал": 6252,
      "ХАТ": 6253,
      "аи": 6254,
      "байды": 6255,
      "боп": 6256,
      "базар": 6257,
      "бос": 6258,
      "гіндегі": 6259,
      "граф": 6260,
      "др": 6261,
      "ду": 6262,
      "дис": 6263,
      "дәуір": 6264,
      "дуақас": 6265,
      "жаман": 6266,
      "жағым": 6267,
      "йкес": 6268,
      "ка": 6269,
      "капи": 6270,
      "лин": 6271,
      "логикалық": 6272,
      "нү": 6273,
      "нөмірі": 6274,
      "ост": 6275,
      "пұл": 6276,
      "пелі": 6277,
      "пиев": 6278,
      "см": 6279,
      "сей": 6280,
      "саңыз": 6281,
      "сарал": 6282,
      "тетін": 6283,
      "төн": 6284,
      "уші": 6285,
      "шов": 6286,
      "шісіне": 6287,
      "ғайлы": 6288,
      "ҚАЛ": 6289,
      "үнем": 6290,
      "һан": 6291,
      "әм": 6292,
      "арасы": 6293,
      "анда": 6294,
      "алдау": 6295,
      "алғыш": 6296,
      "алшақ": 6297,
      "дақыл": 6298,
      "стр": 6299,
      "сты": 6300,
      "аталатын": 6301,
      "атауы": 6302,
      "айтар": 6303,
      "етіледі": 6304,
      "етене": 6305,
      "ауқатын": 6306,
      "ауыстыру": 6307,
      "аспай": 6308,
      "аспан": 6309,
      "ақын": 6310,
      "ақтам": 6311,
      "олқыл": 6312,
      "тігі": 6313,
      "тілі": 6314,
      "тіруге": 6315,
      "иялы": 6316,
      "ірік": 6317,
      "туады": 6318,
      "тудыру": 6319,
      "таразыл": 6320,
      "орыс": 6321,
      "ындаған": 6322,
      "болдыр": 6323,
      "баған": 6324,
      "сайлаудағы": 6325,
      "генде": 6326,
      "бірлігін": 6327,
      "стандар": 6328,
      "станциялар": 6329,
      "басшылығының": 6330,
      "берсін": 6331,
      "баруы": 6332,
      "барысын": 6333,
      "қаралады": 6334,
      "қаралды": 6335,
      "келдік": 6336,
      "келмейтін": 6337,
      "ісінде": 6338,
      "еттілік": 6339,
      "отехн": 6340,
      "ойл": 6341,
      "ойлам": 6342,
      "тыңдау": 6343,
      "зин": 6344,
      "халықтан": 6345,
      "инстанциялар": 6346,
      "заңдағы": 6347,
      "дереу": 6348,
      "сынға": 6349,
      "шығын": 6350,
      "партиясын": 6351,
      "партияаралық": 6352,
      "талып": 6353,
      "кеніш": 6354,
      "құралады": 6355,
      "құраған": 6356,
      "жылдам": 6357,
      "жылжым": 6358,
      "жылдарда": 6359,
      "қолайсыз": 6360,
      "енгізіп": 6361,
      "отырысына": 6362,
      "мақты": 6363,
      "мақшы": 6364,
      "мақала": 6365,
      "астында": 6366,
      "ламентар": 6367,
      "комис": 6368,
      "әкімге": 6369,
      "жету": 6370,
      "тұрып": 6371,
      "тұрмыз": 6372,
      "тұрғысынан": 6373,
      "өкілдеріне": 6374,
      "беруде": 6375,
      "димир": 6376,
      "есебін": 6377,
      "жасалады": 6378,
      "жасалатын": 6379,
      "саланы": 6380,
      "білмей": 6381,
      "санына": 6382,
      "толтыр": 6383,
      "көрн": 6384,
      "азаматтарына": 6385,
      "реформаны": 6386,
      "өндіру": 6387,
      "ретіндегі": 6388,
      "реттел": 6389,
      "демеу": 6390,
      "елерге": 6391,
      "жүретін": 6392,
      "күніне": 6393,
      "депутаттарға": 6394,
      "қауқар": 6395,
      "қызметтік": 6396,
      "негізге": 6397,
      "мемлекеттерде": 6398,
      "практ": 6399,
      "ауылдар": 6400,
      "ауылдарда": 6401,
      "өлше": 6402,
      "сегіз": 6403,
      "жұмысқа": 6404,
      "жұмысшы": 6405,
      "баптан": 6406,
      "жақтаст": 6407,
      "есінен": 6408,
      "тілуі": 6409,
      "жағдайдың": 6410,
      "жағдайларды": 6411,
      "аудандардың": 6412,
      "пікіріне": 6413,
      "актор": 6414,
      "бақылай": 6415,
      "мызды": 6416,
      "қойылады": 6417,
      "Заңымыз": 6418,
      "сұрау": 6419,
      "маусымнан": 6420,
      "сайланып": 6421,
      "енгізумен": 6422,
      "бақылауында": 6423,
      "орынсыз": 6424,
      "орындарға": 6425,
      "орындарында": 6426,
      "белсенділер": 6427,
      "басқаруда": 6428,
      "өңірді": 6429,
      "болғанына": 6430,
      "болғанымен": 6431,
      "бұрмал": 6432,
      "есептеу": 6433,
      "белгіленді": 6434,
      "көрсететін": 6435,
      "Ермек": 6436,
      "мания": 6437,
      "манов": 6438,
      "хабарлау": 6439,
      "бәсекені": 6440,
      "кандидаттарға": 6441,
      "саясаттағы": 6442,
      "Сайлаушылардың": 6443,
      "осында": 6444,
      "күшейте": 6445,
      "сайлаушылары": 6446,
      "сайлаушыларды": 6447,
      "нәтижесіне": 6448,
      "кетеді": 6449,
      "деңгейіне": 6450,
      "бөлігін": 6451,
      "сауатты": 6452,
      "айналады": 6453,
      "шектей": 6454,
      "атқарып": 6455,
      "науқанды": 6456,
      "палатасы": 6457,
      "палатасының": 6458,
      "өтетіні": 6459,
      "өтетінін": 6460,
      "бейжай": 6461,
      "бейімдел": 6462,
      "рий": 6463,
      "нормаларына": 6464,
      "жинау": 6465,
      "жиналып": 6466,
      "жинауға": 6467,
      "мүддел": 6468,
      "өкілеттігіне": 6469,
      "арада": 6470,
      "араби": 6471,
      "жекеменшік": 6472,
      "ескерт": 6473,
      "болашағының": 6474,
      "өкілеттіктер": 6475,
      "бетте": 6476,
      "көтерген": 6477,
      "көтеруге": 6478,
      "көтеріліп": 6479,
      "пайыздан": 6480,
      "арналғанын": 6481,
      "істеуге": 6482,
      "тәуелсіздікке": 6483,
      "жігіт": 6484,
      "округінің": 6485,
      "тұрғындарға": 6486,
      "тұрғындармен": 6487,
      "филиалдарында": 6488,
      "2015": 6489,
      "мандатқа": 6490,
      "мандаттық": 6491,
      "Кездесуден": 6492,
      "назарына": 6493,
      "Жерді": 6494,
      "орталығына": 6495,
      "бағдарын": 6496,
      "АТЫР": 6497,
      "учаскелерде": 6498,
      "мерзімде": 6499,
      "мерзімге": 6500,
      "Жалпыхалықтық": 6501,
      "әзірл": 6502,
      "бұзу": 6503,
      "бұзылып": 6504,
      "тоқтала": 6505,
      "заңнамасының": 6506,
      "мұхам": 6507,
      "соғысы": 6508,
      "бүгінге": 6509,
      "қосқан": 6510,
      "батасын": 6511,
      "университеттің": 6512,
      "Әділдік": 6513,
      "демократияландыруға": 6514,
      "анықтай": 6515,
      "дамытудың": 6516,
      "қалғанын": 6517,
      "құрамының": 6518,
      "ереже": 6519,
      "бақылаушыларға": 6520,
      "мәжілісі": 6521,
      "жарияланды": 6522,
      "қарастырылмаған": 6523,
      "актілеріне": 6524,
      "істерді": 6525,
      "айқындап": 6526,
      "комиссияларға": 6527,
      "пайдалана": 6528,
      "жалғаса": 6529,
      "филиалдары": 6530,
      "қосуда": 6531,
      "білдіруі": 6532,
      "жауапкершілігіне": 6533,
      "дүниеге": 6534,
      "көңілінен": 6535,
      "жойып": 6536,
      "мазмұны": 6537,
      "шешуші": 6538,
      "кездесулерде": 6539,
      "тапсырма": 6540,
      "1700": 6541,
      "ұлттың": 6542,
      "Үкіметке": 6543,
      "Әбіловтің": 6544,
      "коалиция": 6545,
      "атсалысуы": 6546,
      "теңдікке": 6547,
      "жаңару": 6548,
      "жаңарған": 6549,
      "жобасының": 6550,
      "Жиен": 6551,
      "тетіктері": 6552,
      "Еуро": 6553,
      "Жақында": 6554,
      "нәрсен": 6555,
      "жағдайларға": 6556,
      "ешкімнің": 6557,
      "экономиканың": 6558,
      "сипаттағы": 6559,
      "мүлдем": 6560,
      "этно": 6561,
      "елордаға": 6562,
      "төртінші": 6563,
      "all": 6564,
      "бағалан": 6565,
      "қарсылығын": 6566,
      "жасақтау": 6567,
      "Конс": 6568,
      "Әмірбек": 6569,
      "бекіткен": 6570,
      "тоқтата": 6571,
      "үміткерлердің": 6572,
      "иль": 6573,
      "ЫСЫ": 6574,
      "бұзушылықтар": 6575,
      "жетекші": 6576,
      "сақталуын": 6577,
      "жеңілде": 6578,
      "сөйлесті": 6579,
      "Отырысты": 6580,
      "Отырысқа": 6581,
      "құралдарының": 6582,
      "Бақытбек": 6583,
      "Төлеу": 6584,
      "Құрметті": 6585,
      "мағынасы": 6586,
      "мағынасын": 6587,
      "базасында": 6588,
      "гімізге": 6589,
      "Сарапшылар": 6590,
      "ДИАҚБ": 6591,
      "ИЯСЫНЫҢ": 6592,
      "Омар": 6593,
      "иеленуіне": 6594,
      "көреміз": 6595,
      "Сәдуақас": 6596,
      "Сәпиев": 6597,
      "Басқаша": 6598,
      "квотасын": 6599,
      "ерекшеліктерін": 6600,
      "күнделікті": 6601,
      "қаулысымен": 6602,
      "жаһан": 6603,
      "мақсаттары": 6604,
      "мақсаттарын": 6605,
      "қатынастардың": 6606,
      "митинг": 6607,
      "салтанатты": 6608,
      "қауіпсіздігіне": 6609,
      "эксперт": 6610,
      "ГІЗ": 6611,
      "баршамыз": 6612,
      "шектелмейді": 6613,
      "Мәслихат": 6614,
      "айырмашылығы": 6615,
      "факторлардың": 6616,
      "shamy": 6617,
      "жұмысшыларымен": 6618,
      "мекемелер": 6619,
      "Ассамблеяның": 6620,
      "наразылық": 6621,
      "отандастарымыз": 6622,
      "akshamy": 6623,
      "Астана": 6624,
      "академ": 6625,
      "бетбұрыс": 6626,
      "модераторлығымен": 6627,
      "КЕЗ": 6628,
      "бесеуі": 6629,
      "шалғай": 6630,
      "дауыстарды": 6631,
      "талқыға": 6632,
      "субъектілері": 6633,
      "телеарн": 6634,
      "кешіктірмей": 6635,
      "ity": 6636,
      "сессиясында": 6637,
      "Германия": 6638,
      "сəйкес": 6639,
      "участ": 6640,
      "шахта": 6641,
      "Суперпрезиденттік": 6642,
      "Түзетулер": 6643,
      "көмегімен": 6644,
      "төрағалығымен": 6645,
      "ақылдасып": 6646,
      "немқұрайлы": 6647,
      "Өзбекстан": 6648,
      "МӘЖІЛ": 6649,
      "Аида": 6650,
      "Владимир": 6651,
      "ЖӘНЕ": 6652,
      "Уәлихан": 6653,
      "алғышарт": 6654,
      "ақтамаса": 6655,
      "стандарт": 6656,
      "инстанцияларға": 6657,
      "%.": 6658,
      "21": 6659,
      "60": 6660,
      "71": 6661,
      "800": 6662,
      "94": 6663,
      "Astan": 6664,
      "FOR": 6665,
      "Referendum": 6666,
      "Uni": 6667,
      "as": 6668,
      "sity": 6669,
      "ver": 6670,
      "əр": 6671,
      "əділ": 6672,
      "Ала": 6673,
      "Атам": 6674,
      "БАС": 6675,
      "ЕДІ": 6676,
      "ЖО": 6677,
      "Жу": 6678,
      "ЖҮ": 6679,
      "ЖАЛ": 6680,
      "Зиялы": 6681,
      "Иман": 6682,
      "ИТУ": 6683,
      "Ма": 6684,
      "Мак": 6685,
      "МҮШ": 6686,
      "Но": 6687,
      "Нәтиж": 6688,
      "Нақтыл": 6689,
      "Нағыз": 6690,
      "НҰР": 6691,
      "Оп": 6692,
      "ПРЕ": 6693,
      "Смай": 6694,
      "Та": 6695,
      "Тая": 6696,
      "Тұс": 6697,
      "Шай": 6698,
      "Шақ": 6699,
      "Шара": 6700,
      "Элек": 6701,
      "бесі": 6702,
      "зақ": 6703,
      "иесі": 6704,
      "игілі": 6705,
      "кс": 6706,
      "ку": 6707,
      "кіне": 6708,
      "кету": 6709,
      "кiл": 6710,
      "лады": 6711,
      "мұрат": 6712,
      "мырза": 6713,
      "нк": 6714,
      "нам": 6715,
      "оч": 6716,
      "ожин": 6717,
      "паз": 6718,
      "паса": 6719,
      "пестен": 6720,
      "рын": 6721,
      "рам": 6722,
      "сор": 6723,
      "сіп": 6724,
      "сең": 6725,
      "ыстан": 6726,
      "ят": 6727,
      "ғақ": 6728,
      "ғасын": 6729,
      "қыру": 6730,
      "ӘБ": 6731,
      "Әли": 6732,
      "әкеледі": 6733,
      "әкелетін": 6734,
      "әдіс": 6735,
      "арының": 6736,
      "арман": 6737,
      "ынтал": 6738,
      "алса": 6739,
      "алсын": 6740,
      "алсақ": 6741,
      "стату": 6742,
      "дет": 6743,
      "атады": 6744,
      "атына": 6745,
      "аталып": 6746,
      "атформ": 6747,
      "айыру": 6748,
      "дім": 6749,
      "дігіміздің": 6750,
      "етiн": 6751,
      "етіндей": 6752,
      "асуына": 6753,
      "асуда": 6754,
      "елшілік": 6755,
      "елшілігі": 6756,
      "ыңғайлы": 6757,
      "ақор": 6758,
      "ақтарға": 6759,
      "ілуі": 6760,
      "екше": 6761,
      "ектен": 6762,
      "менті": 6763,
      "тартады": 6764,
      "өзіміздің": 6765,
      "орындай": 6766,
      "орындау": 6767,
      "ұрп": 6768,
      "таған": 6769,
      "іккен": 6770,
      "рефе": 6771,
      "рефрендум": 6772,
      "біріне": 6773,
      "бірікті": 6774,
      "дара": 6775,
      "ұлан": 6776,
      "ұлының": 6777,
      "басов": 6778,
      "басынан": 6779,
      "бермек": 6780,
      "беремін": 6781,
      "өтен": 6782,
      "барамын": 6783,
      "парламенті": 6784,
      "дықты": 6785,
      "жәшік": 6786,
      "дандыр": 6787,
      "апол": 6788,
      "келмей": 6789,
      "келсек": 6790,
      "референдумде": 6791,
      "отыз": 6792,
      "қате": 6793,
      "тез": 6794,
      "тест": 6795,
      "тыңдай": 6796,
      "Конституциясы": 6797,
      "Конституциясында": 6798,
      "дамиды": 6799,
      "әрсен": 6800,
      "заңының": 6801,
      "қосыл": 6802,
      "өзгерістің": 6803,
      "сындар": 6804,
      "лерінде": 6805,
      "тани": 6806,
      "танылады": 6807,
      "партиясынан": 6808,
      "айтамыз": 6809,
      "талуы": 6810,
      "талпын": 6811,
      "құра": 6812,
      "жылды": 6813,
      "шыларды": 6814,
      "імізбен": 6815,
      "құқын": 6816,
      "туристік": 6817,
      "дейiн": 6818,
      "астыру": 6819,
      "сумен": 6820,
      "кінәлі": 6821,
      "сенеді": 6822,
      "сенко": 6823,
      "жетіп": 6824,
      "жетуге": 6825,
      "жетудің": 6826,
      "рух": 6827,
      "жұмсал": 6828,
      "дегенге": 6829,
      "қатыспаған": 6830,
      "лестер": 6831,
      "леуге": 6832,
      "өткізе": 6833,
      "Парламентар": 6834,
      "белі": 6835,
      "салған": 6836,
      "саласына": 6837,
      "біледі": 6838,
      "мүшесінің": 6839,
      "мүшелік": 6840,
      "санымен": 6841,
      "санынан": 6842,
      "санайтын": 6843,
      "жаңаша": 6844,
      "мүмкiн": 6845,
      "билікте": 6846,
      "махан": 6847,
      "Парламентті": 6848,
      "жерлестер": 6849,
      "ланың": 6850,
      "сіздер": 6851,
      "күнгі": 6852,
      "күнінен": 6853,
      "қаулық": 6854,
      "жолдың": 6855,
      "жолдан": 6856,
      "жолдау": 6857,
      "ауылға": 6858,
      "түсінеміз": 6859,
      "әлкім": 6860,
      "тіксіз": 6861,
      "елімізге": 6862,
      "шығаруы": 6863,
      "байдың": 6864,
      "байұлы": 6865,
      "лихат": 6866,
      "түрлен": 6867,
      "жарлық": 6868,
      "баптарды": 6869,
      "шаралары": 6870,
      "Біріншісі": 6871,
      "жақта": 6872,
      "табу": 6873,
      "күштердің": 6874,
      "олармен": 6875,
      "пікірді": 6876,
      "пікірлер": 6877,
      "Нұргелді": 6878,
      "қызметтерін": 6879,
      "сотты": 6880,
      "түзетудің": 6881,
      "жүздесу": 6882,
      "байланысқа": 6883,
      "шешімімен": 6884,
      "қоймай": 6885,
      "тасталсын": 6886,
      "бақылаушылық": 6887,
      "айтынын": 6888,
      "жазған": 6889,
      "жазасының": 6890,
      "жазалау": 6891,
      "мед": 6892,
      "алмаса": 6893,
      "кездесуді": 6894,
      "штабы": 6895,
      "өміріміздегі": 6896,
      "делінген": 6897,
      "көрсетіл": 6898,
      "көрсеткi": 6899,
      "Ерғали": 6900,
      "Ерекше": 6901,
      "органның": 6902,
      "органдарға": 6903,
      "тұрғындарды": 6904,
      "үрді": 6905,
      "кандидатын": 6906,
      "депутатқа": 6907,
      "депутатының": 6908,
      "хатшылары": 6909,
      "мүмкіндікті": 6910,
      "мүмкіндіктер": 6911,
      "Сайлауды": 6912,
      "үйр": 6913,
      "сынап": 6914,
      "кезеңдер": 6915,
      "кезеңнің": 6916,
      "талқылаудан": 6917,
      "дамуындағы": 6918,
      "орнының": 6919,
      "орнынан": 6920,
      "орнықты": 6921,
      "қолданып": 6922,
      "Олжас": 6923,
      "тауар": 6924,
      "тауын": 6925,
      "күшейтетін": 6926,
      "текс": 6927,
      "Қазірдің": 6928,
      "соңынан": 6929,
      "талаптарын": 6930,
      "кетсе": 6931,
      "парламентте": 6932,
      "келісімді": 6933,
      "бөліп": 6934,
      "бөлісіп": 6935,
      "сауат": 6936,
      "солтүстік": 6937,
      "тармақтың": 6938,
      "сыздандыру": 6939,
      "бастамасына": 6940,
      "атқарған": 6941,
      "шақырамыз": 6942,
      "қадамдарын": 6943,
      "импи": 6944,
      "жүйедегі": 6945,
      "араласу": 6946,
      "араласып": 6947,
      "араласуға": 6948,
      "сарапшысы": 6949,
      "нормалары": 6950,
      "нормаларды": 6951,
      "жинады": 6952,
      "мәртебе": 6953,
      "Өзін": 6954,
      "ықпалын": 6955,
      "көшуге": 6956,
      "көшбасшыларымен": 6957,
      "старын": 6958,
      "топтас": 6959,
      "шеттет": 6960,
      "беттерінде": 6961,
      "көтеріледі": 6962,
      "ерікті": 6963,
      "бағдары": 6964,
      "түсіндіруге": 6965,
      "лайық": 6966,
      "дiң": 6967,
      "жұрттың": 6968,
      "лауазымға": 6969,
      "2009": 6970,
      "жігер": 6971,
      "жіберген": 6972,
      "мамырдағы": 6973,
      "пеуі": 6974,
      "ететініне": 6975,
      "әсерін": 6976,
      "жасауда": 6977,
      "аймақтағы": 6978,
      "аймақтарды": 6979,
      "аймақтарда": 6980,
      "уәкілге": 6981,
      "заңдарда": 6982,
      "заңдарға": 6983,
      "кіру": 6984,
      "кіргіз": 6985,
      "жайылым": 6986,
      "раиль": 6987,
      "мерзімін": 6988,
      "Жалпыұлттық": 6989,
      "ресурс": 6990,
      "көрінеді": 6991,
      "тармағындағы": 6992,
      "төменде": 6993,
      "пост": 6994,
      "АЛМ": 6995,
      "кәсіпкерлік": 6996,
      "бағытталғанын": 6997,
      "байқаушылары": 6998,
      "жиында": 6999,
      "жиырма": 7000,
      "редакциясына": 7001,
      "жеңіп": 7002,
      "қосылған": 7003,
      "алаңда": 7004,
      "дайындықты": 7005,
      "Әділбек": 7006,
      "ұйымдастырушылық": 7007,
      "округтері": 7008,
      "дәлелі": 7009,
      "жобалар": 7010,
      "жобаны": 7011,
      "өтініші": 7012,
      "жоспарлап": 7013,
      "қалғанда": 7014,
      "Арал": 7015,
      "мақұлдайды": 7016,
      "пақшы": 7017,
      "айқындал": 7018,
      "бақылаушыларын": 7019,
      "Әбілқайыр": 7020,
      "мәжілісте": 7021,
      "сайлауларға": 7022,
      "қазақтың": 7023,
      "СТИТУ": 7024,
      "бөлімде": 7025,
      "виру": 7026,
      "баяндалған": 7027,
      "сапасына": 7028,
      "Тұяқ": 7029,
      "арттыратынын": 7030,
      "бостандықтары": 7031,
      "өтініштері": 7032,
      "шараларға": 7033,
      "мұнда": 7034,
      "қырынан": 7035,
      "процесті": 7036,
      "құзырет": 7037,
      "студенті": 7038,
      "сәтте": 7039,
      "тәсілі": 7040,
      "айырылады": 7041,
      "жетілдіруге": 7042,
      "платформ": 7043,
      "модельдің": 7044,
      "үдерісі": 7045,
      "туындады": 7046,
      "бюджеті": 7047,
      "бюджеттерді": 7048,
      "шамамен": 7049,
      "құрылымы": 7050,
      "органдарымен": 7051,
      "бөлінген": 7052,
      "Кеңеске": 7053,
      "жалғасты": 7054,
      "жалғастыруға": 7055,
      "индексi": 7056,
      "жобасында": 7057,
      "республикадан": 7058,
      "студенттерімен": 7059,
      "Еураз": 7060,
      "Жақып": 7061,
      "жағдайларда": 7062,
      "ҚЫЗЫ": 7063,
      "жоспарлануда": 7064,
      "мүлтіксіз": 7065,
      "өнеркәсіп": 7066,
      "депутаттығына": 7067,
      "функцияларын": 7068,
      "бөлігіне": 7069,
      "тұжырымдамасының": 7070,
      "құжаттарының": 7071,
      "қызметкерлерімен": 7072,
      "университетінде": 7073,
      "технологияларды": 7074,
      "Қолға": 7075,
      "толығырақ": 7076,
      "жауапкершілікке": 7077,
      "Өңірлер": 7078,
      "ертеңгі": 7079,
      "әділдікті": 7080,
      "ментінің": 7081,
      "әділетсіз": 7082,
      "учаскелерімен": 7083,
      "Бейбіт": 7084,
      "Бұрынғы": 7085,
      "сезініп": 7086,
      "күмәнмен": 7087,
      "Кандидаттар": 7088,
      "Мәди": 7089,
      "Темірболат": 7090,
      "басшылыққа": 7091,
      "дипломаттар": 7092,
      "ЗИДЕН": 7093,
      "қарамай": 7094,
      "қозғайтын": 7095,
      "борыш": 7096,
      "озық": 7097,
      "тіркелу": 7098,
      "орнатуға": 7099,
      "үдерістерді": 7100,
      "пысықталды": 7101,
      "тізгін": 7102,
      "аккредиттелген": 7103,
      "Жетіс": 7104,
      "иров": 7105,
      "аптада": 7106,
      "қызметкерлеріне": 7107,
      "қауіпсіздігін": 7108,
      "Берзин": 7109,
      "мəсел": 7110,
      "Қорытынды": 7111,
      "кешеніне": 7112,
      "ахуалға": 7113,
      "расталады": 7114,
      "айыппұл": 7115,
      "Әбдіғали": 7116,
      "қайталап": 7117,
      "еститін": 7118,
      "қасиет": 7119,
      "алтыншы": 7120,
      "қызықтырған": 7121,
      "тұтастай": 7122,
      "akh": 7123,
      "басталайын": 7124,
      "академия": 7125,
      "...": 7126,
      "Ұсынылып": 7127,
      "негiзiнде": 7128,
      "қызметшілердің": 7129,
      "үйлестір": 7130,
      "үйлестіру": 7131,
      "жұртшылықтың": 7132,
      "VII": 7133,
      "серіктестер": 7134,
      "әлеуметтану": 7135,
      "қуантады": 7136,
      "дәстүрлі": 7137,
      "әдеттегідей": 7138,
      "azakh": 7139,
      "Гүлжан": 7140,
      "Шалқар": 7141,
      "нығая": 7142,
      "бәсекелестігі": 7143,
      "либерализациялау": 7144,
      "Сүлейменов": 7145,
      "легитимдігінің": 7146,
      "Ақорданың": 7147,
      "онавиру": 7148,
      "есебінен": 7149,
      "төмендегенін": 7150,
      "ЫНДА": 7151,
      "жастағы": 7152,
      "ӨЗГ": 7153,
      "еркімен": 7154,
      "пікірлерімен": 7155,
      "тәрбие": 7156,
      "беріңіздер": 7157,
      "бөлімшелер": 7158,
      "сауалнаманың": 7159,
      "Төртінші": 7160,
      "түйткілді": 7161,
      "төндіретін": 7162,
      "департаментінің": 7163,
      "демекші": 7164,
      "тренинг": 7165,
      "Нығматулин": 7166,
      "Бутя": 7167,
      "Тайжан": 7168,
      "бiлдiру": 7169,
      "мөлшер": 7170,
      "ҚАТЫС": 7171,
      "көбеюі": 7172,
      "талқысына": 7173,
      "орынбасарларына": 7174,
      "ардагерлері": 7175,
      "Кенжеғалиев": 7176,
      "агенттігі": 7177,
      "Денсаулық": 7178,
      "INFOR": 7179,
      "Виктор": 7180,
      "Израиль": 7181,
      "таразылап": 7182,
      "Astana": 7183,
      "Univer": 7184,
      "Алаш": 7185,
      "Носенко": 7186,
      "Нәтижесінде": 7187,
      "ПРЕЗИДЕН": 7188,
      "Смайылов": 7189,
      "Таяуда": 7190,
      "Тұсмағамбетов": 7191,
      "Шақаман": 7192,
      "көрсеткiш": 7193,
      "Берзиня": 7194,
      "INFORM": 7195,
      "University": 7196,
      "\")": 7197,
      ".,": 7198,
      "220": 7199,
      "37": 7200,
      "300": 7201,
      "48": 7202,
      "99": 7203,
      "900": 7204,
      "Sar": 7205,
      "ap": 7206,
      "be": 7207,
      "go": 7208,
      "iмен": 7209,
      "on": 7210,
      "or": 7211,
      "us": 7212,
      "Алек": 7213,
      "Азия": 7214,
      "Атаз": 7215,
      "Аңыз": 7216,
      "Бю": 7217,
      "Бө": 7218,
      "БЕР": 7219,
      "Бура": 7220,
      "Вост": 7221,
      "Гл": 7222,
      "Гус": 7223,
      "Дж": 7224,
      "ДАН": 7225,
      "ДАР": 7226,
      "Дмит": 7227,
      "Жап": 7228,
      "Жылы": 7229,
      "Журнал": 7230,
      "Зул": 7231,
      "ИЕВ": 7232,
      "Кар": 7233,
      "Кер": 7234,
      "Күр": 7235,
      "КЕН": 7236,
      "ЛАМ": 7237,
      "ЛЫҚ": 7238,
      "ЛЕК": 7239,
      "Мей": 7240,
      "Мус": 7241,
      "Мэл": 7242,
      "МАҢ": 7243,
      "ОҚ": 7244,
      "Оқу": 7245,
      "ПТ": 7246,
      "Пір": 7247,
      "Респу": 7248,
      "Рус": 7249,
      "Сы": 7250,
      "Сал": 7251,
      "Сәрсен": 7252,
      "Федерация": 7253,
      "Фараби": 7254,
      "ХІ": 7255,
      "Шв": 7256,
      "Шиелі": 7257,
      "ШЫСЫ": 7258,
      "Ық": 7259,
      "ашар": 7260,
      "буын": 7261,
      "бесінші": 7262,
      "гапол": 7263,
      "дүр": 7264,
      "жуы": 7265,
      "зов": 7266,
      "зауыт": 7267,
      "иә": 7268,
      "иесінің": 7269,
      "ки": 7270,
      "кос": 7271,
      "кри": 7272,
      "мем": 7273,
      "масы": 7274,
      "нін": 7275,
      "нақ": 7276,
      "нұр": 7277,
      "пау": 7278,
      "палды": 7279,
      "пәрмен": 7280,
      "рі": 7281,
      "сың": 7282,
      "сып": 7283,
      "сындағы": 7284,
      "саралап": 7285,
      "тат": 7286,
      "той": 7287,
      "тылады": 7288,
      "таса": 7289,
      "тейтін": 7290,
      "уд": 7291,
      "удан": 7292,
      "уәж": 7293,
      "фер": 7294,
      "фан": 7295,
      "фон": 7296,
      "федерация": 7297,
      "хаттар": 7298,
      "хаб": 7299,
      "шен": 7300,
      "шер": 7301,
      "шір": 7302,
      "шот": 7303,
      "шысының": 7304,
      "эфи": 7305,
      "юрал": 7306,
      "ҒАН": 7307,
      "Қу": 7308,
      "ҚҚ": 7309,
      "Қыл": 7310,
      "Қас": 7311,
      "Қыс": 7312,
      "Қалы": 7313,
      "Қайн": 7314,
      "қыт": 7315,
      "Ұйым": 7316,
      "ӘР": 7317,
      "Әзір": 7318,
      "әкел": 7319,
      "арға": 7320,
      "еркіне": 7321,
      "алайық": 7322,
      "алимпи": 7323,
      "аталм": 7324,
      "айдан": 7325,
      "ылайша": 7326,
      "асат": 7327,
      "ассамбле": 7328,
      "елшісі": 7329,
      "елбасы": 7330,
      "елшілігінің": 7331,
      "ақи": 7332,
      "ақпан": 7333,
      "иясын": 7334,
      "иясының": 7335,
      "ізді": 7336,
      "еседі": 7337,
      "іргелі": 7338,
      "мендер": 7339,
      "туция": 7340,
      "туынша": 7341,
      "ғымын": 7342,
      "өзім": 7343,
      "өзімізді": 7344,
      "ғани": 7345,
      "імбетов": 7346,
      "орнау": 7347,
      "ырз": 7348,
      "амайтын": 7349,
      "амалын": 7350,
      "неде": 7351,
      "болмауға": 7352,
      "қажыр": 7353,
      "сайлай": 7354,
      "біреуге": 7355,
      "бірыңғай": 7356,
      "дені": 7357,
      "стантин": 7358,
      "стикалық": 7359,
      "дария": 7360,
      "ұлов": 7361,
      "басының": 7362,
      "өткім": 7363,
      "барамыз": 7364,
      "парақш": 7365,
      "дықов": 7366,
      "жәр": 7367,
      "жәйт": 7368,
      "ҚазҰ": 7369,
      "келу": 7370,
      "келең": 7371,
      "тығын": 7372,
      "ісінше": 7373,
      "іспеу": 7374,
      "даусын": 7375,
      "жүру": 7376,
      "ларда": 7377,
      "ларына": 7378,
      "ойлаған": 7379,
      "қатыстыр": 7380,
      "көруге": 7381,
      "көкөн": 7382,
      "зиев": 7383,
      "Конституциямен": 7384,
      "қанын": 7385,
      "қанаты": 7386,
      "қалың": 7387,
      "қалса": 7388,
      "қалуы": 7389,
      "қаланы": 7390,
      "қалдыру": 7391,
      "инат": 7392,
      "заңгерлер": 7393,
      "ағына": 7394,
      "кезiнде": 7395,
      "өзгерістері": 7396,
      "құтыл": 7397,
      "алардан": 7398,
      "кімдер": 7399,
      "лігінде": 7400,
      "жоғар": 7401,
      "жоғын": 7402,
      "ліктің": 7403,
      "кенің": 7404,
      "терр": 7405,
      "қолы": 7406,
      "ластар": 7407,
      "імізде": 7408,
      "била": 7409,
      "дауыспен": 7410,
      "үнін": 7411,
      "әкімдікке": 7412,
      "жатып": 7413,
      "жұмыл": 7414,
      "жұмысты": 7415,
      "беруіміз": 7416,
      "беруші": 7417,
      "ұсынамыз": 7418,
      "ұсынылуы": 7419,
      "маңызына": 7420,
      "уымен": 7421,
      "түсе": 7422,
      "мәселесінде": 7423,
      "мәселенің": 7424,
      "қызық": 7425,
      "қызығы": 7426,
      "қызықты": 7427,
      "біле": 7428,
      "шілері": 7429,
      "комиссияларын": 7430,
      "адамдары": 7431,
      "санап": 7432,
      "санаттар": 7433,
      "санасы": 7434,
      "сананы": 7435,
      "саналатын": 7436,
      "санаймыз": 7437,
      "лығының": 7438,
      "тола": 7439,
      "толуына": 7440,
      "көрмеген": 7441,
      "азаматтардан": 7442,
      "қазба": 7443,
      "торалдық": 7444,
      "реттеу": 7445,
      "Парламентінің": 7446,
      "жерін": 7447,
      "демін": 7448,
      "ымызша": 7449,
      "сіздердің": 7450,
      "жүрді": 7451,
      "қаулылары": 7452,
      "учаскені": 7453,
      "шешеді": 7454,
      "жөні": 7455,
      "жөнінен": 7456,
      "екендігі": 7457,
      "өзгертіледі": 7458,
      "өзгергенін": 7459,
      "өзгертілген": 7460,
      "жалқаулық": 7461,
      "мемлекеттердің": 7462,
      "ауылдағы": 7463,
      "ауылдардың": 7464,
      "қордалан": 7465,
      "президенттер": 7466,
      "сөзден": 7467,
      "сөздің": 7468,
      "сөзімен": 7469,
      "байқай": 7470,
      "байқап": 7471,
      "қайдан": 7472,
      "қайшылық": 7473,
      "ұйымға": 7474,
      "ұйымының": 7475,
      "көптеп": 7476,
      "түркі": 7477,
      "баптары": 7478,
      "баптағы": 7479,
      "шараларды": 7480,
      "Бірқатар": 7481,
      "күштеп": 7482,
      "егемен": 7483,
      "жауаптар": 7484,
      "жауаптыл": 7485,
      "Нұрбек": 7486,
      "Нұртаз": 7487,
      "ашқан": 7488,
      "бақылап": 7489,
      "мызда": 7490,
      "Заңмен": 7491,
      "Заңдарды": 7492,
      "кесіп": 7493,
      "партиялардан": 7494,
      "жатқанына": 7495,
      "бақылауда": 7496,
      "Елде": 7497,
      "қатарлы": 7498,
      "жазасынан": 7499,
      "өңірге": 7500,
      "өңірінен": 7501,
      "мез": 7502,
      "мегапол": 7503,
      "Тоқаевты": 7504,
      "Тоқаевтан": 7505,
      "көзқараст": 7506,
      "қатысушылары": 7507,
      "белгілеу": 7508,
      "дыра": 7509,
      "реформалары": 7510,
      "уақытында": 7511,
      "өмірлік": 7512,
      "көрсетіледі": 7513,
      "теңсіздік": 7514,
      "теңеседі": 7515,
      "өткізуде": 7516,
      "органға": 7517,
      "итет": 7518,
      "арнаған": 7519,
      "қабылданбады": 7520,
      "бағыттар": 7521,
      "тұғыр": 7522,
      "Халыққа": 7523,
      "Халықпен": 7524,
      "кезеңін": 7525,
      "кезеңіне": 7526,
      "жұмыстарды": 7527,
      "осылайша": 7528,
      "қолданыста": 7529,
      "Оларға": 7530,
      "күшейтіледі": 7531,
      "болатынына": 7532,
      "өткенін": 7533,
      "нәтижелі": 7534,
      "қабылдауы": 7535,
      "қабылдаудың": 7536,
      "жоғарыдан": 7537,
      "минут": 7538,
      "келіспей": 7539,
      "Сотының": 7540,
      "байқауға": 7541,
      "тармақты": 7542,
      "айнала": 7543,
      "таңдауына": 7544,
      "науқаннан": 7545,
      "мыналарды": 7546,
      "палаталардың": 7547,
      "қадамы": 7548,
      "міндеттерді": 7549,
      "Назарова": 7550,
      "министрдің": 7551,
      "болмас": 7552,
      "болмасын": 7553,
      "ханұлы": 7554,
      "араласуын": 7555,
      "бейне": 7556,
      "Бұқар": 7557,
      "сарапшылары": 7558,
      "жиналған": 7559,
      "тізімде": 7560,
      "форму": 7561,
      "формул": 7562,
      "асырып": 7563,
      "көшбасшыларының": 7564,
      "Айтуынша": 7565,
      "топқа": 7566,
      "шетелде": 7567,
      "тасына": 7568,
      "пайызға": 7569,
      "мағанбетов": 7570,
      "жұртты": 7571,
      "жұртшылығын": 7572,
      "лауазымда": 7573,
      "лауазымынан": 7574,
      "лауазымдарды": 7575,
      "Жалағаш": 7576,
      "трактор": 7577,
      "аян": 7578,
      "қолдаймын": 7579,
      "жібереді": 7580,
      "жіберді": 7581,
      "жіберілген": 7582,
      "алуан": 7583,
      "аймақтар": 7584,
      "шыны": 7585,
      "шынықтыру": 7586,
      "халқымыз": 7587,
      "балалар": 7588,
      "басқара": 7589,
      "басқарып": 7590,
      "кірді": 7591,
      "кіреді": 7592,
      "кірісті": 7593,
      "алдарындағы": 7594,
      "әділеттілікті": 7595,
      "бекітіп": 7596,
      "республикада": 7597,
      "үстіндегі": 7598,
      "арттыруды": 7599,
      "бәсекелестікке": 7600,
      "бұзып": 7601,
      "АУЫ": 7602,
      "АУЫЛ": 7603,
      "иева": 7604,
      "заңнамасын": 7605,
      "заңнамасында": 7606,
      "ционалды": 7607,
      "кеңесші": 7608,
      "нұсқалар": 7609,
      "қосып": 7610,
      "Палатаға": 7611,
      "Палаталардың": 7612,
      "білімі": 7613,
      "университеті": 7614,
      "Жолдаудың": 7615,
      "сип": 7616,
      "ректоры": 7617,
      "жоспарлар": 7618,
      "бастамашылық": 7619,
      "Әбдіровтің": 7620,
      "Әшімовтің": 7621,
      "құрылысқа": 7622,
      "жүйесімен": 7623,
      "тұжырымды": 7624,
      "ұстанымдарын": 7625,
      "Арыс": 7626,
      "Ақпараттық": 7627,
      "әрекетін": 7628,
      "қозғап": 7629,
      "бақылаушыларды": 7630,
      "үміткерді": 7631,
      "мәжіліске": 7632,
      "үкімі": 7633,
      "қалыптасуына": 7634,
      "қарастырады": 7635,
      "қарастырылып": 7636,
      "өсіп": 7637,
      "өскен": 7638,
      "төрайымы": 7639,
      "тіркеуге": 7640,
      "кандидатураларын": 7641,
      "ұзарту": 7642,
      "жалғасын": 7643,
      "жалғасып": 7644,
      "мәдениеті": 7645,
      "шығуы": 7646,
      "шығуын": 7647,
      "ыңызда": 7648,
      "учаскеге": 7649,
      "бостандығын": 7650,
      "болашағымыз": 7651,
      "өтініштерін": 7652,
      "елеп": 7653,
      "танытты": 7654,
      "танытпай": 7655,
      "темір": 7656,
      "болашақтағы": 7657,
      "әрекетке": 7658,
      "спортшылар": 7659,
      "плюрал": 7660,
      "тәжірибесін": 7661,
      "263": 7662,
      "туындаған": 7663,
      "ұлтты": 7664,
      "әкімдігіне": 7665,
      "саладағы": 7666,
      "күрт": 7667,
      "Әкімдерді": 7668,
      "құрылымды": 7669,
      "органдармен": 7670,
      "бөлініп": 7671,
      "измді": 7672,
      "Тілек": 7673,
      "аманат": 7674,
      "оқиғасынан": 7675,
      "қысқарады": 7676,
      "тәсілмен": 7677,
      "Жұма": 7678,
      "қаңтардағы": 7679,
      "қойғанда": 7680,
      "кеңейтуге": 7681,
      "сүйенсек": 7682,
      "Константин": 7683,
      "істейтінін": 7684,
      "коронавиру": 7685,
      "жүгінуге": 7686,
      "талабын": 7687,
      "трансформациялауға": 7688,
      "жақсарту": 7689,
      "қадағалап": 7690,
      "жиынға": 7691,
      "тартуды": 7692,
      "қозғалыс": 7693,
      "қозғалысының": 7694,
      "әділетсіздік": 7695,
      "қамтиды": 7696,
      "мекендерден": 7697,
      "Президентіміздің": 7698,
      "пейміз": 7699,
      "таратып": 7700,
      "субъекті": 7701,
      "күткен": 7702,
      "жеңілдіктер": 7703,
      "сөйлеп": 7704,
      "тағайындаған": 7705,
      "Төраға": 7706,
      "стратегия": 7707,
      "үшіншіден": 7708,
      "базасын": 7709,
      "егіс": 7710,
      "миллиар": 7711,
      "көбейту": 7712,
      "басталғаннан": 7713,
      "тудырып": 7714,
      "деректері": 7715,
      "тірегі": 7716,
      "жиналыста": 7717,
      "қауымдастығы": 7718,
      "Украин": 7719,
      "ский": 7720,
      "жылдардағы": 7721,
      "үдерістерге": 7722,
      "монополияларды": 7723,
      "отбасының": 7724,
      "танымайды": 7725,
      "қорғалатын": 7726,
      "тағайындалғаннан": 7727,
      "корпус": 7728,
      "жазушы": 7729,
      "наурыздағы": 7730,
      "құндылықтарды": 7731,
      "Бектаев": 7732,
      "көзқараспен": 7733,
      "айырмашылығына": 7734,
      "жартылай": 7735,
      "мінез": 7736,
      "Әбдіғани": 7737,
      "кітапханасында": 7738,
      "Министрдің": 7739,
      "Аббат": 7740,
      "Зерттеуге": 7741,
      "Әлемдегі": 7742,
      "алғысын": 7743,
      "қызығушылығы": 7744,
      "ПАРТ": 7745,
      "аралығындағы": 7746,
      "саяды": 7747,
      "таныстырып": 7748,
      "біліктілігін": 7749,
      "наразы": 7750,
      "механизмі": 7751,
      "ТҮЗ": 7752,
      "Құдай": 7753,
      "Қалай": 7754,
      "ылармен": 7755,
      "шығармашылық": 7756,
      "Әуес": 7757,
      "бейбітшілік": 7758,
      "толғандыратын": 7759,
      "КОН": 7760,
      "төтеп": 7761,
      "видео": 7762,
      "коммуникациялар": 7763,
      "колледжінің": 7764,
      "Пікірталас": 7765,
      "Шараны": 7766,
      "курс": 7767,
      "полиция": 7768,
      "портал": 7769,
      "Өрісбаев": 7770,
      "жояды": 7771,
      "отырыстарында": 7772,
      "еңбегі": 7773,
      "Өздеріңіз": 7774,
      "Өздеріңізге": 7775,
      "аренадағы": 7776,
      "жарамды": 7777,
      "НІҢ": 7778,
      "фухар": 7779,
      "ықыласы": 7780,
      "жарнасын": 7781,
      "нығайтып": 7782,
      "мұқият": 7783,
      "сөйлесіп": 7784,
      "жалғастыра": 7785,
      "Сұралғандардың": 7786,
      "мөрімен": 7787,
      "делегация": 7788,
      "магистр": 7789,
      "ашықтығын": 7790,
      "конферен": 7791,
      "Жақсыбек": 7792,
      "өркендеуіне": 7793,
      "ляция": 7794,
      "қалмағаны": 7795,
      "құттықтауын": 7796,
      "Алдымен": 7797,
      "тіршілігіне": 7798,
      "Ардагерлер": 7799,
      "оппоненттер": 7800,
      "Бағдат": 7801,
      "Тиісінше": 7802,
      "Халқ": 7803,
      "базардағы": 7804,
      "капитал": 7805,
      "смс": 7806,
      "үнемі": 7807,
      "дақылдарының": 7808,
      "көрнекті": 7809,
      "бейімделіп": 7810,
      "ескерткіш": 7811,
      "нәрсені": 7812,
      "эксперттік": 7813,
      "Электоралдық": 7814,
      "очный": 7815,
      "қыруар": 7816,
      "біріктіру": 7817,
      "сындарлы": 7818,
      "Парламентаралық": 7819,
      "жолдауында": 7820,
      "Өңірлердегі": 7821,
      "gov": 7822,
      "Атазаң": 7823,
      "Бурабай": 7824,
      "Восточный": 7825,
      "Гусев": 7826,
      "Дмитрий": 7827,
      "Зулфухар": 7828,
      "Мусин": 7829,
      "Мэлс": 7830,
      "Пірімбетов": 7831,
      "Руслан": 7832,
      "Ықпалды": 7833,
      "жуығы": 7834,
      "эфир": 7835,
      "ҚҚДИ": 7836,
      "Қайнар": 7837,
      "аталмыш": 7838,
      "Нұртазаның": 7839,
      "плюрализм": 7840,
      "(\"": 7841,
      ",\".": 7842,
      ".)": 7843,
      "012": 7844,
      "34": 7845,
      "700": 7846,
      "730": 7847,
      "82": 7848,
      "?\",": 7849,
      "AL": 7850,
      "Baq": 7851,
      "Cа": 7852,
      "Haly": 7853,
      "IV": 7854,
      "Kazakh": 7855,
      "NU": 7856,
      "So": 7857,
      "XI": 7858,
      "Yo": 7859,
      "ay": 7860,
      "iс": 7861,
      "oo": 7862,
      "telegram": 7863,
      "ube": 7864,
      "ws": 7865,
      "yla": 7866,
      "Əбіл": 7867,
      "əу": 7868,
      "Ілия": 7869,
      "Ав": 7870,
      "Аң": 7871,
      "Ағы": 7872,
      "Аум": 7873,
      "Адал": 7874,
      "Асыл": 7875,
      "АСК": 7876,
      "Абасов": 7877,
      "БО": 7878,
      "Бақ": 7879,
      "Біл": 7880,
      "Бәс": 7881,
      "Бег": 7882,
      "Бәй": 7883,
      "БІР": 7884,
      "Бәлкім": 7885,
      "Га": 7886,
      "Ген": 7887,
      "ЕС": 7888,
      "Ев": 7889,
      "Жин": 7890,
      "ЖАСТ": 7891,
      "ЗУ": 7892,
      "Зелен": 7893,
      "ЗАҢ": 7894,
      "Ил": 7895,
      "Кә": 7896,
      "Кор": 7897,
      "Лен": 7898,
      "МҰ": 7899,
      "Мар": 7900,
      "Май": 7901,
      "Мау": 7902,
      "Мас": 7903,
      "Мег": 7904,
      "МЕН": 7905,
      "МЕМ": 7906,
      "Мият": 7907,
      "От": 7908,
      "Петер": 7909,
      "Рас": 7910,
      "Ринат": 7911,
      "Стам": 7912,
      "Сосын": 7913,
      "Сауыт": 7914,
      "СПУ": 7915,
      "ТТ": 7916,
      "Тіз": 7917,
      "Тір": 7918,
      "Тоқ": 7919,
      "ТТІ": 7920,
      "УЧ": 7921,
      "Умар": 7922,
      "Фили": 7923,
      "ХАЛЫҚ": 7924,
      "ЦИЯ": 7925,
      "ЫЗ": 7926,
      "Эле": 7927,
      "бул": 7928,
      "бiз": 7929,
      "вол": 7930,
      "гiлi": 7931,
      "егіне": 7932,
      "жын": 7933,
      "жаға": 7934,
      "жад": 7935,
      "жұй": 7936,
      "зация": 7937,
      "залдарындағы": 7938,
      "ид": 7939,
      "йын": 7940,
      "йдің": 7941,
      "кіс": 7942,
      "кла": 7943,
      "кесін": 7944,
      "лас": 7945,
      "лып": 7946,
      "лей": 7947,
      "месі": 7948,
      "нік": 7949,
      "оты": 7950,
      "осының": 7951,
      "пі": 7952,
      "пле": 7953,
      "порталы": 7954,
      "сық": 7955,
      "сім": 7956,
      "саты": 7957,
      "тасы": 7958,
      "ткі": 7959,
      "тасым": 7960,
      "тетінің": 7961,
      "тән": 7962,
      "тiр": 7963,
      "ушылармен": 7964,
      "фор": 7965,
      "хақысы": 7966,
      "чен": 7967,
      "ыта": 7968,
      "ьев": 7969,
      "юс": 7970,
      "юына": 7971,
      "ҒАМ": 7972,
      "ғжан": 7973,
      "Қала": 7974,
      "Қайыр": 7975,
      "ҚҰЛ": 7976,
      "қып": 7977,
      "Үл": 7978,
      "Үн": 7979,
      "ҮЕҰ": 7980,
      "ҰМ": 7981,
      "ұғымын": 7982,
      "Әзер": 7983,
      "өсу": 7984,
      "өкiл": 7985,
      "ару": 7986,
      "арх": 7987,
      "аралады": 7988,
      "енуі": 7989,
      "енғали": 7990,
      "ерлік": 7991,
      "ерлігі": 7992,
      "ану": 7993,
      "анағ": 7994,
      "алмау": 7995,
      "алайда": 7996,
      "алуына": 7997,
      "алья": 7998,
      "даң": 7999,
      "стра": 8000,
      "атанды": 8001,
      "аймағында": 8002,
      "ықтың": 8003,
      "ықшам": 8004,
      "етілген": 8005,
      "етпейді": 8006,
      "ауа": 8007,
      "ауз": 8008,
      "ауқат": 8009,
      "ауатты": 8010,
      "ылмайды": 8011,
      "асыл": 8012,
      "елем": 8013,
      "елінде": 8014,
      "елінің": 8015,
      "тіке": 8016,
      "ірген": 8017,
      "мені": 8018,
      "ысов": 8019,
      "азайып": 8020,
      "тараудан": 8021,
      "онор": 8022,
      "онша": 8023,
      "онымен": 8024,
      "өзімді": 8025,
      "өзегі": 8026,
      "ырда": 8027,
      "ырған": 8028,
      "ыров": 8029,
      "амал": 8030,
      "амбет": 8031,
      "ымы": 8032,
      "болайын": 8033,
      "болсаңыз": 8034,
      "болғасын": 8035,
      "тация": 8036,
      "қаш": 8037,
      "қашев": 8038,
      "іксіз": 8039,
      "емдел": 8040,
      "емхан": 8041,
      "баша": 8042,
      "сайлауынан": 8043,
      "рефер": 8044,
      "бірмандаттық": 8045,
      "дарлар": 8046,
      "басқалар": 8047,
      "берек": 8048,
      "берейік": 8049,
      "барады": 8050,
      "баршылық": 8051,
      "барысына": 8052,
      "бармас": 8053,
      "блок": 8054,
      "қараған": 8055,
      "пара": 8056,
      "дайындауға": 8057,
      "ыстыруға": 8058,
      "аптасына": 8059,
      "келмек": 8060,
      "келтіруге": 8061,
      "ісе": 8062,
      "іссапар": 8063,
      "іскерлік": 8064,
      "дауысты": 8065,
      "даулы": 8066,
      "даусыз": 8067,
      "түкп": 8068,
      "ейлік": 8069,
      "ейміз": 8070,
      "ойынша": 8071,
      "ойлан": 8072,
      "ойдағыдай": 8073,
      "ойымызша": 8074,
      "қателес": 8075,
      "көл": 8076,
      "икасы": 8077,
      "тыңдап": 8078,
      "дамып": 8079,
      "дамыт": 8080,
      "қаны": 8081,
      "қанда": 8082,
      "қандармен": 8083,
      "қалан": 8084,
      "қалам": 8085,
      "қалары": 8086,
      "қалмайды": 8087,
      "ингі": 8088,
      "индик": 8089,
      "заңдарының": 8090,
      "ағысы": 8091,
      "ағұлов": 8092,
      "қосайын": 8093,
      "кезі": 8094,
      "ометр": 8095,
      "құзір": 8096,
      "стерге": 8097,
      "сынақтарға": 8098,
      "танды": 8099,
      "таның": 8100,
      "танбаса": 8101,
      "партиясына": 8102,
      "шегі": 8103,
      "шегіндегі": 8104,
      "айттық": 8105,
      "айтқысы": 8106,
      "айтқым": 8107,
      "тықтан": 8108,
      "талдап": 8109,
      "кеншілер": 8110,
      "кеншілерімен": 8111,
      "құратын": 8112,
      "құралған": 8113,
      "құрамыз": 8114,
      "азаматынан": 8115,
      "титуциялық": 8116,
      "енгізген": 8117,
      "шыларының": 8118,
      "іміздей": 8119,
      "құқына": 8120,
      "билеу": 8121,
      "отырғыз": 8122,
      "отырысқа": 8123,
      "дейік": 8124,
      "бастығы": 8125,
      "ырушылармен": 8126,
      "астыруға": 8127,
      "қоғамы": 8128,
      "коммер": 8129,
      "команда": 8130,
      "Президенттiк": 8131,
      "сенбей": 8132,
      "сенатты": 8133,
      "жетел": 8134,
      "тұра": 8135,
      "тұрса": 8136,
      "тұруы": 8137,
      "қатысқысы": 8138,
      "маңызға": 8139,
      "дирек": 8140,
      "диқандармен": 8141,
      "ғынан": 8142,
      "Алда": 8143,
      "жасаймыз": 8144,
      "жасамақ": 8145,
      "белгісі": 8146,
      "белгiлi": 8147,
      "Соны": 8148,
      "салсақ": 8149,
      "салаға": 8150,
      "салмағын": 8151,
      "салауатты": 8152,
      "білесіз": 8153,
      "етуді": 8154,
      "комиссиясынан": 8155,
      "мүшелі": 8156,
      "сандық": 8157,
      "санаған": 8158,
      "гілік": 8159,
      "толмаған": 8160,
      "көрелік": 8161,
      "жаңашыл": 8162,
      "азаматтарын": 8163,
      "қаза": 8164,
      "енгізілуде": 8165,
      "мүмкіндігіне": 8166,
      "ретiнде": 8167,
      "жеріне": 8168,
      "жерлерде": 8169,
      "демі": 8170,
      "жүрек": 8171,
      "күндері": 8172,
      "күнтіз": 8173,
      "артында": 8174,
      "депутаттарында": 8175,
      "\",–": 8176,
      "шешіп": 8177,
      "жанында": 8178,
      "жандандыр": 8179,
      "ылғанын": 8180,
      "жолын": 8181,
      "жолда": 8182,
      "жолына": 8183,
      "жолдарын": 8184,
      "екенің": 8185,
      "өзгерген": 8186,
      "өзгерте": 8187,
      "жалтақ": 8188,
      "бекем": 8189,
      "мемлекеттегі": 8190,
      "конституцияның": 8191,
      "Республиканы": 8192,
      "кеңесте": 8193,
      "кеңестік": 8194,
      "түсінеді": 8195,
      "түсіндім": 8196,
      "жұмысында": 8197,
      "жұмысшылары": 8198,
      "тікі": 8199,
      "президентті": 8200,
      "сөзіне": 8201,
      "үлесі": 8202,
      "үлгер": 8203,
      "дірді": 8204,
      "шығарылған": 8205,
      "байжан": 8206,
      "әуе": 8207,
      "көптің": 8208,
      "көпұлтты": 8209,
      "опер": 8210,
      "бапты": 8211,
      "ураның": 8212,
      "шараларын": 8213,
      "шарада": 8214,
      "Біраз": 8215,
      "жақтан": 8216,
      "табысты": 8217,
      "табуға": 8218,
      "табыстар": 8219,
      "түзеу": 8220,
      "тілде": 8221,
      "тілінің": 8222,
      "күштерге": 8223,
      "аудандарда": 8224,
      "пікірде": 8225,
      "пікірге": 8226,
      "таңертең": 8227,
      "таңдалып": 8228,
      "актив": 8229,
      "Нұрлы": 8230,
      "істен": 8231,
      "сотта": 8232,
      "бақылайды": 8233,
      "өңдеу": 8234,
      "шешіміне": 8235,
      "қоймайды": 8236,
      "Заңнама": 8237,
      "сұрағым": 8238,
      "маусымында": 8239,
      "естор": 8240,
      "сайлануға": 8241,
      "жатқаны": 8242,
      "бақылаушылары": 8243,
      "Тоғжан": 8244,
      "Елбасының": 8245,
      "түзетулермен": 8246,
      "өңірінде": 8247,
      "бұқара": 8248,
      "көзге": 8249,
      "есеппен": 8250,
      "белгіленеді": 8251,
      "белгілеген": 8252,
      "тірген": 8253,
      "тіршілігі": 8254,
      "кездесуінде": 8255,
      "өмірдің": 8256,
      "өмірімізді": 8257,
      "сатушылармен": 8258,
      "теңдігін": 8259,
      "берілуі": 8260,
      "Ерғалиев": 8261,
      "Ермұрат": 8262,
      "органының": 8263,
      "органдарын": 8264,
      "тұрғынға": 8265,
      "қабылдануына": 8266,
      "бағытты": 8267,
      "бағыттарды": 8268,
      "тапты": 8269,
      "саясатта": 8270,
      "тұт": 8271,
      "тұсында": 8272,
      "құруда": 8273,
      "үйрен": 8274,
      "жұмыстарға": 8275,
      "жұмыстарына": 8276,
      "Қожал": 8277,
      "дамуында": 8278,
      "орнында": 8279,
      "орнатты": 8280,
      "қолданылды": 8281,
      "еунік": 8282,
      "ресейлік": 8283,
      "мағындағы": 8284,
      "реформада": 8285,
      "кететін": 8286,
      "деңгейінің": 8287,
      "2023": 8288,
      "2025": 8289,
      "парламентті": 8290,
      "бөлік": 8291,
      "бөлігінің": 8292,
      "бөледі": 8293,
      "өткізілуі": 8294,
      "хабарлама": 8295,
      "тарихы": 8296,
      "Қасымов": 8297,
      "біріг": 8298,
      "атқармаса": 8299,
      "сұрақтың": 8300,
      "сұрақтары": 8301,
      "қадамның": 8302,
      "қалаймыз": 8303,
      "имов": 8304,
      "министрлігінде": 8305,
      "мейлі": 8306,
      "сараптау": 8307,
      "сарапшының": 8308,
      "телеф": 8309,
      "нормалардың": 8310,
      "нормаларын": 8311,
      "жиналғандар": 8312,
      "тізімінен": 8313,
      "жеткізуге": 8314,
      "Өзіңіз": 8315,
      "қазіргідей": 8316,
      "формасынан": 8317,
      "сенімдемін": 8318,
      "зерттел": 8319,
      "ациясы": 8320,
      "Айқын": 8321,
      "Мұста": 8322,
      "Мұқашев": 8323,
      "мізде": 8324,
      "топтам": 8325,
      "шетте": 8326,
      "РЕСПУ": 8327,
      "асыруы": 8328,
      "мақсатта": 8329,
      "мақсатпен": 8330,
      "мәлімдеген": 8331,
      "мәліметінше": 8332,
      "пайыздық": 8333,
      "пайызынан": 8334,
      "құқығынан": 8335,
      "АНҚҰЛ": 8336,
      "Жалаи": 8337,
      "тра": 8338,
      "тран": 8339,
      "тәуелсізді": 8340,
      "жібер": 8341,
      "жіберуге": 8342,
      "жіберетін": 8343,
      "кешуде": 8344,
      "зерттеуінің": 8345,
      "перспек": 8346,
      "тұрғындарына": 8347,
      "тиімділігін": 8348,
      "Кездесудің": 8349,
      "Кездесулерде": 8350,
      "аймақта": 8351,
      "аймақтардың": 8352,
      "басшысына": 8353,
      "мүшелерінен": 8354,
      "назарға": 8355,
      "бала": 8356,
      "балалы": 8357,
      "басқарған": 8358,
      "басқарады": 8359,
      "алдарыңызда": 8360,
      "рах": 8361,
      "мерзімді": 8362,
      "мерзімінің": 8363,
      "мерзімнен": 8364,
      "ауысуы": 8365,
      "көрініп": 8366,
      "көріністер": 8367,
      "елдердегі": 8368,
      "бұзылған": 8369,
      "бәрібір": 8370,
      "күдік": 8371,
      "нұсқау": 8372,
      "қысым": 8373,
      "мақсатын": 8374,
      "тұрғанын": 8375,
      "партиялықтар": 8376,
      "Палаталарының": 8377,
      "демократияландырудағы": 8378,
      "ұйымдастыруымен": 8379,
      "тағайындаудың": 8380,
      "ұйымдастырып": 8381,
      "көзқарасы": 8382,
      "дәлелде": 8383,
      "одағының": 8384,
      "өтінім": 8385,
      "бастамашы": 8386,
      "шаруаларға": 8387,
      "метр": 8388,
      "бағдарламасы": 8389,
      "бағдарламасына": 8390,
      "Ауылда": 8391,
      "Жарыл": 8392,
      "Жарлығы": 8393,
      "Жармахан": 8394,
      "Партиялар": 8395,
      "таңдасын": 8396,
      "мақұлдаған": 8397,
      "бұрынғыдай": 8398,
      "бәрінен": 8399,
      "сапармен": 8400,
      "сапарымен": 8401,
      "сапарлары": 8402,
      "талқылануда": 8403,
      "үміткердің": 8404,
      "қабылданғаннан": 8405,
      "актілерді": 8406,
      "себептен": 8407,
      "ЕНГІЗ": 8408,
      "шешімдерден": 8409,
      "шешімдеріне": 8410,
      "Көпен": 8411,
      "тұжырымдағы": 8412,
      "еңбекке": 8413,
      "судьядан": 8414,
      "судьяны": 8415,
      "пайдалануға": 8416,
      "бірқатары": 8417,
      "жалғасуда": 8418,
      "сапасы": 8419,
      "ДЫҚ": 8420,
      "Ондай": 8421,
      "қорытындылары": 8422,
      "қуаныш": 8423,
      "бостандықтар": 8424,
      "аяқталған": 8425,
      "ұстын": 8426,
      "кенттер": 8427,
      "өтініштеріне": 8428,
      "өтініштерімен": 8429,
      "елегінен": 8430,
      "салуды": 8431,
      "ұжымдарымен": 8432,
      "нашар": 8433,
      "қырық": 8434,
      "білдірушілер": 8435,
      "тастауды": 8436,
      "пайдасы": 8437,
      "нысанының": 8438,
      "нысандары": 8439,
      "кездескен": 8440,
      "шешудің": 8441,
      "Саясаттану": 8442,
      "туыстарының": 8443,
      "мамандары": 8444,
      "тәртібімен": 8445,
      "қатысушыларды": 8446,
      "тағайындал": 8447,
      "модельге": 8448,
      "құжаттың": 8449,
      "РЕФЕРЕНДУМҒА": 8450,
      "бұқараның": 8451,
      "980": 8452,
      "акцияны": 8453,
      "трансляция": 8454,
      "бөлінеді": 8455,
      "жаңарту": 8456,
      "клин": 8457,
      "орындап": 8458,
      "орындауға": 8459,
      "облыстары": 8460,
      "тетіктер": 8461,
      "студенттерге": 8462,
      "нәрс": 8463,
      "экономикаға": 8464,
      "қолдайтындарын": 8465,
      "Жұмағұлов": 8466,
      "малшылармен": 8467,
      "нарық": 8468,
      "заңнамада": 8469,
      "желідегі": 8470,
      "Әлтаев": 8471,
      "Әлбетте": 8472,
      "елордадағы": 8473,
      "ережелерін": 8474,
      "ережелерді": 8475,
      "қарсылас": 8476,
      "мәліметтерді": 8477,
      "САЙЛАУЫ": 8478,
      "Белсен": 8479,
      "бөлігінде": 8480,
      "құжаттарды": 8481,
      "жапсар": 8482,
      "жауапкершілікпен": 8483,
      "шетелдіктер": 8484,
      "тұлғалардың": 8485,
      "тұлғаларды": 8486,
      "тұлғаларға": 8487,
      "пломатиялық": 8488,
      "Мәжiлiс": 8489,
      "аккредиттеді": 8490,
      "миссиялары": 8491,
      "асуының": 8492,
      "шешілмеген": 8493,
      "жасағанымда": 8494,
      "көшуді": 8495,
      "қағидатын": 8496,
      "қағидаттар": 8497,
      "ұғымдары": 8498,
      "ұрпақтың": 8499,
      "субмәдениет": 8500,
      "сақталады": 8501,
      "күтпестен": 8502,
      "жеңілдету": 8503,
      "Отырыс": 8504,
      "оппозицияның": 8505,
      "бастамаларына": 8506,
      "нығайтуды": 8507,
      "Құқықтық": 8508,
      "Жанар": 8509,
      "Кандидаттың": 8510,
      "1300": 8511,
      "Мәдени": 8512,
      "Мұндағы": 8513,
      "егістік": 8514,
      "жобада": 8515,
      "өзгертеміз": 8516,
      "мәжбүрлі": 8517,
      "қалыптастырады": 8518,
      "Талғар": 8519,
      "британия": 8520,
      "ғимар": 8521,
      "қарамауымыз": 8522,
      "қамтып": 8523,
      "әділеттіліктің": 8524,
      "айналысады": 8525,
      "Ескі": 8526,
      "бiрдей": 8527,
      "прокурорды": 8528,
      "масқара": 8529,
      "Ұлыбритания": 8530,
      "қатерлерге": 8531,
      "сыйлық": 8532,
      "қаулыны": 8533,
      "Биылғы": 8534,
      "үдерістердің": 8535,
      "Өмірәлі": 8536,
      "сауалдарға": 8537,
      "корпусы": 8538,
      "принциптерінің": 8539,
      "Жаңақор": 8540,
      "Учаске": 8541,
      "Қайрат": 8542,
      "аптадан": 8543,
      "кәсіби": 8544,
      "кәсіпорындар": 8545,
      "Бекеш": 8546,
      "жайларда": 8547,
      "мойында": 8548,
      "Қорған": 8549,
      "кешенінің": 8550,
      "ҚАЗАҚСТАНДАҒЫ": 8551,
      "майтынын": 8552,
      "растады": 8553,
      "Қандай": 8554,
      "альдық": 8555,
      "көмектес": 8556,
      "қалдырған": 8557,
      "қазанда": 8558,
      "әлдеқайда": 8559,
      "медициналық": 8560,
      "ескерілмейтін": 8561,
      "shym": 8562,
      "Ешқандай": 8563,
      "Маратова": 8564,
      "Әлемде": 8565,
      "жұмысшыларды": 8566,
      "пайымдау": 8567,
      "үкіметке": 8568,
      "ПАРЛАМ": 8569,
      "ҚОҒАМ": 8570,
      "көшеге": 8571,
      "астырылған": 8572,
      "қызықтыратын": 8573,
      "ескеруіміз": 8574,
      "Кейінгі": 8575,
      "Бәрін": 8576,
      "иелігін": 8577,
      "пейтінін": 8578,
      "өзіңізге": 8579,
      "көтерілуі": 8580,
      "түйіні": 8581,
      "Тұрғындардың": 8582,
      "Наурызбаев": 8583,
      "ДАУЫС": 8584,
      "ХХХІ": 8585,
      "бесеуін": 8586,
      "инвестор": 8587,
      "жетістікке": 8588,
      "қажеттіліктері": 8589,
      "келісімінсіз": 8590,
      "кіріспе": 8591,
      "Көпшілік": 8592,
      "Байқаушылар": 8593,
      "толғандырған": 8594,
      "пакетіне": 8595,
      "етілетіні": 8596,
      "қаржылық": 8597,
      "беделді": 8598,
      "мемлекетімізде": 8599,
      "топтарынан": 8600,
      "мақұлдауымен": 8601,
      "Демократиялық": 8602,
      "дағдарыстар": 8603,
      "Жұртшылықты": 8604,
      "Шалғай": 8605,
      "сіңірген": 8606,
      "ҮШІН": 8607,
      "біріктіріліп": 8608,
      "көбіне": 8609,
      "қанағаттандыр": 8610,
      "қанағаттанбаса": 8611,
      "әрқайсысы": 8612,
      "былтырғы": 8613,
      "сараптамалық": 8614,
      "көшірме": 8615,
      "орынбасарлары": 8616,
      "кеңестердің": 8617,
      "либерализмді": 8618,
      "Сүлеймен": 8619,
      "легитимді": 8620,
      "574": 8621,
      "Бастысы": 8622,
      "Елеусіз": 8623,
      "ТӨРА": 8624,
      "ҚАДАМ": 8625,
      "қалайтынымызды": 8626,
      "өнімдерінің": 8627,
      "идеясының": 8628,
      "сұхбатында": 8629,
      "Прокурор": 8630,
      "консулдық": 8631,
      "Меди": 8632,
      "Махамбет": 8633,
      "Түсін": 8634,
      "муницип": 8635,
      "тәуек": 8636,
      "төңірегінде": 8637,
      "Үміткер": 8638,
      "ақпараттар": 8639,
      "жауабы": 8640,
      "жауабын": 8641,
      "судьясын": 8642,
      "Спикерінің": 8643,
      "режімде": 8644,
      "жиналыстарға": 8645,
      "кабинеттерді": 8646,
      "эксперименттік": 8647,
      "Кәсіподақ": 8648,
      "Дипломатиялық": 8649,
      "Дүнген": 8650,
      "альянсы": 8651,
      "аурухана": 8652,
      "екеуінде": 8653,
      "кестесі": 8654,
      "біржолата": 8655,
      "танытады": 8656,
      "Нұрғалиева": 8657,
      "алмасулар": 8658,
      "анықталады": 8659,
      "процедур": 8660,
      "ақсақалдармен": 8661,
      "мүгедектігі": 8662,
      "KAZINFORM": 8663,
      "БЛИК": 8664,
      "тиімсіз": 8665,
      "ішінара": 8666,
      "түсіндірілуде": 8667,
      "ахметов": 8668,
      "агроөнеркәсіп": 8669,
      "мұражайлар": 8670,
      "мұғалімдермен": 8671,
      "Боқаев": 8672,
      "Наталья": 8673,
      "Оңтүстік": 8674,
      "графикалық": 8675,
      "нүк": 8676,
      "ушіге": 8677,
      "олқылықтар": 8678,
      "болдырмау": 8679,
      "ойламаймын": 8680,
      "жылжымалы": 8681,
      "қолайсыздық": 8682,
      "өлшеп": 8683,
      "жақтастары": 8684,
      "Жиеналиев": 8685,
      "Сәдуақасова": 8686,
      "участке": 8687,
      "əділеттілік": 8688,
      "Оппозиция": 8689,
      "ынталандыру": 8690,
      "статусын": 8691,
      "ұрпақты": 8692,
      "жұмсалатынын": 8693,
      "сауаттыл": 8694,
      "СТИТУЦИЯ": 8695,
      "Тұяқбай": 8696,
      "үйлестірушісі": 8697,
      "тренингтер": 8698,
      "мөлшерінде": 8699,
      "Sarap": 8700,
      "Бюллетен": 8701,
      "Жылыжайларда": 8702,
      "Журналист": 8703,
      "Күріш": 8704,
      "ЛЕКЕТ": 8705,
      "ПТР": 8706,
      "сыпырушылармен": 8707,
      "шенеунік": 8708,
      "Қасенғали": 8709,
      "Қысқасы": 8710,
      "ассамблеяс": 8711,
      "қажырлы": 8712,
      "көкөніс": 8713,
      "ластарым": 8714,
      "байқаймыз": 8715,
      "тракторшылармен": 8716,
      "бостандығынан": 8717,
      "Тілектес": 8718,
      "миллиард": 8719,
      "ТҮЗЕТ": 8720,
      "КОНСТИТУЦИЯ": 8721,
      "Baqyla": 8722,
      "Cаll": 8723,
      "Halyq": 8724,
      "Kazakhstan": 8725,
      "NUR": 8726,
      "Əбілқайыр": 8727,
      "əуел": 8728,
      "Ілияс": 8729,
      "Аумақтық": 8730,
      "Бәсек": 8731,
      "Гаипов": 8732,
      "Евр": 8733,
      "Илья": 8734,
      "Кәші": 8735,
      "Ленин": 8736,
      "Маслихат": 8737,
      "МЕМЛЕКЕТ": 8738,
      "Стамбул": 8739,
      "УЧАСК": 8740,
      "Умаров": 8741,
      "Элеонор": 8742,
      "Әзербайжан": 8743,
      "өкiлдер": 8744,
      "анағұрлым": 8745,
      "емделушіге": 8746,
      "емханаға": 8747,
      "түкпір": 8748,
      "қателеспейміз": 8749,
      "индикатор": 8750,
      "дирекциясы": 8751,
      "Мұстаф": 8752,
      "РЕСПУБЛИК": 8753,
      "Жалаири": 8754,
      "перспектив": 8755,
      "Жаңақорған": 8756,
      "ПАРЛАМЕН": 8757,
      "Baqylau": 8758,
      "Элеонора": 8759,
      "/.": 8760,
      "130": 8761,
      "39": 8762,
      "62": 8763,
      "66": 8764,
      "74": 8765,
      "?”": 8766,
      "AU": 8767,
      "Call": 8768,
      "Ex": 8769,
      "LAU": 8770,
      "MS": 8771,
      "PS": 8772,
      "QY": 8773,
      "SMS": 8774,
      "TAN": 8775,
      "TAL": 8776,
      "ews": 8777,
      "ik": 8778,
      "ir": 8779,
      "of": 8780,
      "ot": 8781,
      "oEx": 8782,
      "per": 8783,
      "tv": 8784,
      "yl": 8785,
      "əтиж": 8786,
      "ІС": 8787,
      "Аз": 8788,
      "Аты": 8789,
      "Атал": 8790,
      "Ара": 8791,
      "Афан": 8792,
      "Астра": 8793,
      "Бр": 8794,
      "Бу": 8795,
      "Бат": 8796,
      "Баз": 8797,
      "Бор": 8798,
      "Байт": 8799,
      "Бри": 8800,
      "БАР": 8801,
      "БЕК": 8802,
      "ГЕ": 8803,
      "Дум": 8804,
      "ЕЙ": 8805,
      "ЕҢ": 8806,
      "ЖУ": 8807,
      "Жэ": 8808,
      "Жү": 8809,
      "Жау": 8810,
      "Жек": 8811,
      "Жем": 8812,
      "Жаб": 8813,
      "ЖАР": 8814,
      "ЖАТЫР": 8815,
      "ЖҰМ": 8816,
      "Зак": 8817,
      "Заман": 8818,
      "ИД": 8819,
      "Ир": 8820,
      "Ис": 8821,
      "ЙЫН": 8822,
      "Кол": 8823,
      "Кім": 8824,
      "Кері": 8825,
      "Кри": 8826,
      "ЛЕТ": 8827,
      "МА": 8828,
      "ММ": 8829,
      "МО": 8830,
      "Мер": 8831,
      "Мек": 8832,
      "Мүм": 8833,
      "МІР": 8834,
      "МЖАН": 8835,
      "МИС": 8836,
      "Наз": 8837,
      "НАҚ": 8838,
      "Ру": 8839,
      "Расында": 8840,
      "РАТ": 8841,
      "Сер": 8842,
      "Солардың": 8843,
      "САР": 8844,
      "САЛ": 8845,
      "СЕН": 8846,
      "Сағат": 8847,
      "Тр": 8848,
      "ТАЛЫҚ": 8849,
      "УС": 8850,
      "ШЫ": 8851,
      "Шипов": 8852,
      "ШТА": 8853,
      "Эконом": 8854,
      "Экс": 8855,
      "ЯС": 8856,
      "Ябо": 8857,
      "аев": 8858,
      "бінде": 8859,
      "бот": 8860,
      "бур": 8861,
      "беті": 8862,
      "бауыр": 8863,
      "во": 8864,
      "верт": 8865,
      "ги": 8866,
      "гу": 8867,
      "дү": 8868,
      "дол": 8869,
      "дия": 8870,
      "драх": 8871,
      "ец": 8872,
      "жен": 8873,
      "жалған": 8874,
      "жағы": 8875,
      "жайы": 8876,
      "зм": 8877,
      "зан": 8878,
      "иға": 8879,
      "йынша": 8880,
      "йекті": 8881,
      "лов": 8882,
      "лұм": 8883,
      "латв": 8884,
      "мия": 8885,
      "меді": 8886,
      "мынан": 8887,
      "масын": 8888,
      "мыстық": 8889,
      "нер": 8890,
      "нына": 8891,
      "ник": 8892,
      "нəтиж": 8893,
      "од": 8894,
      "оян": 8895,
      "піл": 8896,
      "пре": 8897,
      "ры": 8898,
      "реттік": 8899,
      "сінің": 8900,
      "сорт": 8901,
      "солардың": 8902,
      "сүз": 8903,
      "тон": 8904,
      "тесе": 8905,
      "тос": 8906,
      "төтен": 8907,
      "уар": 8908,
      "уды": 8909,
      "ферт": 8910,
      "ху": 8911,
      "хақыл": 8912,
      "церт": 8913,
      "шыр": 8914,
      "шінің": 8915,
      "шасы": 8916,
      "шүй": 8917,
      "шаңызды": 8918,
      "ьша": 8919,
      "юға": 8920,
      "іті": 8921,
      "Ғаб": 8922,
      "ғалған": 8923,
      "ғысының": 8924,
      "ғожин": 8925,
      "Қам": 8926,
      "Қой": 8927,
      "Қоң": 8928,
      "Қара": 8929,
      "ҚАУ": 8930,
      "Қатыс": 8931,
      "қаң": 8932,
      "қалық": 8933,
      "қайтып": 8934,
      "Ұлан": 8935,
      "Ұжым": 8936,
      "ұят": 8937,
      "әкір": 8938,
      "әкеп": 8939,
      "әдемі": 8940,
      "Өзім": 8941,
      "Өтем": 8942,
      "Өске": 8943,
      "арылып": 8944,
      "арий": 8945,
      "енгелі": 8946,
      "енарий": 8947,
      "анов": 8948,
      "аналармен": 8949,
      "алғалы": 8950,
      "стем": 8951,
      "дедік": 8952,
      "атори": 8953,
      "айдың": 8954,
      "айынды": 8955,
      "ықтары": 8956,
      "етсіз": 8957,
      "етсе": 8958,
      "етілді": 8959,
      "ауына": 8960,
      "аушы": 8961,
      "ауыстыруға": 8962,
      "ылыс": 8963,
      "ылса": 8964,
      "ылмақ": 8965,
      "ылығын": 8966,
      "ылмай": 8967,
      "асың": 8968,
      "асам": 8969,
      "асуға": 8970,
      "ассақ": 8971,
      "асьев": 8972,
      "елу": 8973,
      "ель": 8974,
      "ыңды": 8975,
      "ақтө": 8976,
      "олай": 8977,
      "олик": 8978,
      "тілігін": 8979,
      "иян": 8980,
      "ғады": 8981,
      "ілмейді": 8982,
      "ілгері": 8983,
      "еки": 8984,
      "екендер": 8985,
      "екіншісі": 8986,
      "есімін": 8987,
      "ыса": 8988,
      "тулер": 8989,
      "тари": 8990,
      "тардан": 8991,
      "онсон": 8992,
      "онстр": 8993,
      "рей": 8994,
      "рея": 8995,
      "рейт": 8996,
      "ғып": 8997,
      "аңдар": 8998,
      "өзің": 8999,
      "өздеріне": 9000,
      "ырау": 9001,
      "ырбаев": 9002,
      "ыршақ": 9003,
      "амас": 9004,
      "амасақ": 9005,
      "кеші": 9006,
      "ыма": 9007,
      "ымдар": 9008,
      "болжау": 9009,
      "болсам": 9010,
      "болжап": 9011,
      "болғалы": 9012,
      "таба": 9013,
      "сайлады": 9014,
      "ыпты": 9015,
      "геніміз": 9016,
      "бірінде": 9017,
      "бірлі": 9018,
      "біркісідей": 9019,
      "біріккен": 9020,
      "денуі": 9021,
      "стандық": 9022,
      "стина": 9023,
      "саев": 9024,
      "сабыр": 9025,
      "дардан": 9026,
      "басқосуда": 9027,
      "өтсе": 9028,
      "өттік": 9029,
      "өтпеген": 9030,
      "қаралатын": 9031,
      "қарасақ": 9032,
      "дайы": 9033,
      "дана": 9034,
      "ыстау": 9035,
      "ыстап": 9036,
      "апты": 9037,
      "Қазан": 9038,
      "ісов": 9039,
      "жүгір": 9040,
      "діңіз": 9041,
      "шабу": 9042,
      "ларымыздың": 9043,
      "ларыңызға": 9044,
      "оймен": 9045,
      "икалар": 9046,
      "тегін": 9047,
      "тесті": 9048,
      "тыңдады": 9049,
      "дамым": 9050,
      "етініне": 9051,
      "қанымыз": 9052,
      "әркім": 9053,
      "қаласа": 9054,
      "қаламыз": 9055,
      "қаласына": 9056,
      "қалмауға": 9057,
      "қалмады": 9058,
      "халықтікі": 9059,
      "заңымыз": 9060,
      "заңдары": 9061,
      "қоян": 9062,
      "кездей": 9063,
      "құм": 9064,
      "стердің": 9065,
      "тияр": 9066,
      "сынау": 9067,
      "аларда": 9068,
      "танып": 9069,
      "шеше": 9070,
      "шегіне": 9071,
      "айтсам": 9072,
      "терлік": 9073,
      "терри": 9074,
      "құралдар": 9075,
      "жылдардың": 9076,
      "жылдарға": 9077,
      "жылдарында": 9078,
      "тиді": 9079,
      "қолтық": 9080,
      "қолынан": 9081,
      "қолдады": 9082,
      "енгізе": 9083,
      "енгізейік": 9084,
      "ласт": 9085,
[...]
